BC059AD4
3D6AE155
B9833576
BB648D5E
3C61AE71
3ADED030
BCAECD3D
3C2EF622
BD92C2D8
3B17BFFB
BCEBA16E
3C627C61
3D076F10
BC5716D3
BBB26FBF
3C881004
BCB41836
3CFC0676
3D2FA01C
BC7660AF
3C38BA5C
3A2C6A09
3CAD59D5
BCD8EE0E
BB90A23A
BCDA129B
3D2EB844
3B2FC1A4
BCF5A350
3CFCE52E
3C9A4DF4
3CE8BD59
3C100E60
BCD2FC5C
3CCC4A5B
3CCDC11E
BC7BA8EE
BC55AD46
BC7E4799
BB2A0420
BD25AD39
BC39F4EE
3CDCAF63
BC93E1CA
3D3586E5
BC8AAFBC
BCC56133
BCB12033
BD4D6005
3C0E1105
BC32E8F6
3D4CC682
BC7FE451
3CDA847B
BB29FCBE
3C664E7E
3C40753B
3C081873
BD3BB31A
3D2A7CC6
3C766DB0
BD364297
3B1B2DC3
3C92BC30
3C919879
BBA30EE3
3C79B3B6
3CD1DAF4
3CCE1AE0
3C81797D
3B147746
3CD143F5
3CA32B13
3BA9BF16
3CA5361A
BCC518A3
3CEF0F82
3C8F6A36
3D26743E
BC893B48
3B05B78F
BCFEF284
3D171A49
3C9BB3F0
3C62DB97
3C2E1694
3D224F80
3CD9CFB5
3C5A7745
BC5F266C
3CC7D1F1
3C5556DF
BC4402FA
3CA5F451
BCCC34C2
3B9BA868
BC5BCA97
BD06263A
BBA888A0
BB80FCAA
3CECFA9F
3CCAD404
BC142BB1
3CB4619C
3C3EB547
BCD51EE1
BCBF6896
BC9EABF2
BC0914F2
BD04DB4C
B8C7FE36
3CCC6427
BC28884A
BCAC262E
3BD36DBB
3C839622
3C24455A
BCA1B379
3CC0D61F
BD440BAE
3C213443
BCDE702E
3AD077A7
BC858BFB
BBF6142E
BCF6F0C2
3CDB7B1B
3B0B65FA
3C887478
BC904C13
3C807D33
BD142013
3AF76049
BC641B9E
BD1AD8AF
BBB4506A
BCB9F5FB
3C56197D
BB94112F
BCC66BF5
BC0CE58C
3C6FCBD5
BB646DA8
3C9E1A32
3CE22A62
3CA9E5E2
3CE53360
3C5951AB
BC813C0A
3C4E81D9
3CB71393
BBAB1E92
3D0CF180
3CFA662D
3C677A63
BC3EB7CC
3B1A847B
BB8CBC11
3D180F3B
3BEAE5D2
BCC35C76
3D319D31
3CAF3C2E
BC2DCB80
BCC5B43F
BB167146
3CB6EBF0
BCAFA905
3B9C4688
BD000AE8
39BB9B21
3C8E0D3F
3BF3243A
3D2BB484
BB883152
3CA94325
BD17198D
BCC1574E
BA9A4439
BCC3979A
3C64CB5C
3C5F5B45
3C50BC46
3BB93251
BC7F7886
BC228FE2
3AFE5358
3BAE2CCF
BCACCC47
BC6CF272
BCBAB5A9
BCA3B115
BBF2C26A
3A8C79A0
BC693624
3C957D40
BCAAC3F9
3C41D812
3C0C7086
BC8920DB
BCA759E1
BC9AF07C
3BB9C7A2
3C80FE2D
BCA0B0AF
3C64D56D
BCFE9B11
3D180E49
3BEA56A0
BBEECBFB
3BD1F515
3CDA6D34
BCEB6178
3C4B380D
BBD6618C
3AC8DA24
BB815C0B
BD0FF9C3
3CBD83B9
3BEF5BAD
3B58FB2E
BC20A43A
BC898D12
3BA6390F
3CDC849B
BC890CEF
3C9B46AD
3C493E37
BC8064DF
3857C3F7
3B744562
3C2881FF
BC74BB94
3C1CB9E0
BC25EEA7
BD000284
3BF8F951
BBFFE7ED
BC5F7114
3CBDB4CC
3D0A8F05
BC217DB4
BC1ACE78
3CCB83F7
3BD4319B
BCB93327
BC1EA1E1
BCE6EDE0
BC928E0D
3B063BEF
3C9DE2D4
BC1A653C
BC3C91EC
3CE85AC8
3C078092
BCD4E8FB
3CFECAE1
BA84187E
3C4A7C90
3C5BEAE2
3BF0E068
BA879A69
3C1D7AFB
BCB1DA02
3CF14A25
3CD681B7
3BD8D4AD
BC655B39
3C1E9191
BC239F17
BCD6A345
3B6B8016
BC82FD76
BCCBA3A2
3B9DDDA1
BCD732ED
3CC02554
BCD92535
BC16E1C4
BC1C2F4B
3AED4DF7
BD0C18DD
BC8ADFF8
BC4B4070
3CD498A9
BC92A51E
3CDFE93F
3B3825CC
3AD829F8
BC930927
BCB8631E
BC53CE49
BCCC0054
BCBA41E5
B9866491
3804B833
3CE2F456
3B48F3CF
BD11F6BD
BBFA7AC5
3CE43493
3C7F64D0
3CAC6731
BC94E7EF
BCA6574D
BB8A9B3A
3D153A24
3C972B60
3CB56649
3CFC1A63
3C4B4005
3C5348E8
BC656B95
BC84212D
3C8C6859
BCB7698E
3C208998
3CA0FDDC
3CF14D4A
BC541B0A
3CA33EC9
BB9D505D
3C74B041
BC9B45D7
3CF3B829
3C8954DE
BC7BEB9E
BC4FA0BD
BCE14453
3C3118A7
BBB2A94B
BCAA3B73
BCD83F27
BD260D96
3986EB30
3C2B5DE7
BC1833F4
BCF84EFC
BD038E2A
BBC12D5C
39B57347
3CB94531
BC12A138
3A73E00C
BD13CB23
3C425793
BC3C26F8
BD0E4A46
B764FB01
3CE1DA45
BCDF5FE2
3D579E32
3D11D4FA
3D60A237
3C82B2CD
3C8B69F6
BC715329
3B91900B
BD53775C
BB1A1FA6
3C10EA53
BC0E2DB5
3A8D927A
BD3983CA
BAC4BEE1
3AB3C595
3C12A91A
3C4BA301
3CBBF254
BD81CF35
3CEA57F8
BC93F14F
3C63E949
3CCA18BD
3CA66F00
3CB02130
BCB91ED0
BD425B5A
3C32016F
3D10BDA3
3C03CD6A
3D2BA83F
BAC16B45
BCF61EA0
3CC4EB57
BCA73564
BD07D567
BA02E7C0
BCD017A5
BC5EB603
3B6D8D37
BCC6133F
3D40FEB3
3C02F243
BC8521DE
BC53E631
3CFD1641
3CADB1B4
3BD8453B
3C161ED0
3C65555A
3D8A3302
BC1887A1
BCCABB7B
3D0F57F7
BCC1D0F0
3C9B427C
3C1027E1
BD068A5E
3D0663AC
3C4C2F18
3CB66E1B
BC81EB93
BC4FD1CF
3CB5B376
3CDD1809
3CB99D0F
3CB5A101
3BC9320E
3BBB53BE
3CF295EA
BCB85836
3C3D2A98
BC9743B4
BC52C8FB
3C9CBAB6
BC181CB7
BC4050BE
3C71A70C
BBE5B77F
BB9CAF38
3BC74478
3CFF70F9
BC5D89B3
3C4A30A6
3C798D8B
3B6C2024
BCD26593
BC8958DA
3B61579E
BC49C5B1
3D25F882
BBF12BBC
BCA5E56D
BC81FC8F
3BB34DA0
3CF7995F
BC705A71
3C415C56
3D123176
BCEB1126
3C3FF690
3C18A37A
3CBFE3E6
3B36EF96
BCDE04CE
3CA6F9D4
BBC53DF8
BD095E4E
BC31C433
BB77888D
BC264006
3CBFEC49
3C52D880
3C111648
3C86BA2E
3C37D051
BD0F85AF
3D1DF57F
BCB38858
BCB5E9FD
3BA83279
BCBC53D9
3D007901
3CE758D5
BB0807CC
BBA65681
3D10E5E6
3BBDDD5B
BCE5BED6
3D00F2A4
BBD2CF70
BC05E92E
BBD69EF3
3CBBDC19
3C62372D
3BDDBEF8
BCFBE015
3BA17241
3B899601
3CCBDE90
BCDA48B6
BC3CC94A
3D020B58
3CACAD73
3C85803D
BC6C8712
3B7F03D7
3BEF7D51
3CAB455E
BCB08645
3C4411A8
3D21A99E
3BC2D176
3B1D06B6
BCAFAB8A
BD200391
BBF79766
BBC751E4
BCC918AD
BCD9DCEB
3D3C1C10
BC1F2A27
BCF0926F
3D02AC17
3BAED72E
3D08F04F
BD042C14
3C40AFF3
3C32D327
BBEEEBF1
BC52666A
BD1D647A
3BCEE312
3D1F22A5
3CF392D5
BB82792C
3C93C4D9
3C8DA09D
3C18273E
BCE45ABE
3B68F39F
3C0F46AF
3D3122B8
BBA4663C
3AA46A58
3CE8CD13
3CA5EEDD
BCCFFFBD
3C967CAF
BBD64BD2
3CEF03C4
BD1E72B2
BC958751
BC942A8F
3CACB6AD
3C1CF544
BCD7B452
3D67814E
3CF29BC9
3C1F7256
BC964C3D
3C70867B
3C9DDADC
3BD07868
BCD70EDB
3C633630
BCDAFDE8
3CE0FD05
BCA63BD4
BB0E7980
3C55F3BD
BC0B1304
3B915614
BCA51A6C
BA6EBAF8
3CC80552
BD073960
BC0403E6
BC1DFAD2
3CF2F556
3CE6AE1F
BCF2D179
BC2FE678
BC129A2C
3CD9087A
3C0E8DA2
BC224321
3D0D279B
3A99F60B
3CAB95E6
3BD98582
B8C14ABF
BB762287
BD04D8FD
3B2DA616
3CFCA502
3C8E44D2
3CEAA194
BC9C4E80
BC8B8E74
BCF703A2
3B4EF216
BC4EA43D
3BA2C43B
3C33D36C
BD0058EB
3BA43F65
BC300A8A
BB8D1120
BC3D9B6C
BC9C121A
3C4B5BB4
3CC6BACF
3C0DB743
3CA7FF58
BC8959B0
3A9DCE88
3C377CD9
3C66BE10
BC886CB6
BBF62F72
BB8C67ED
BD08F2D3
B9267734
3CC938C4
BB51912D
3C52DDF3
BCBF63C3
3CE47BAB
BD01A826
BC2CAA83
BC741942
3C552C82
BB068BCB
BBCD5D81
BB88138A
BCCADA84
3CAF9478
BC0659E1
3CED040F
3CE4E08A
BCAE34C7
3CA5F959
BCF7ED42
3CB6A6F1
3CC8C85B
3BE4BA3F
BCA74D4C
3C9B3D73
BC259261
BCD7D6B6
BC31E413
3CEA0A96
BCAFA2BB
3B51B6EC
3CB7AEF9
3BA6656F
3CEEE55B
3C1B4B0A
BCDC376E
BBBF3AD3
3C599609
BCAB169A
3CF65AD0
BCB03C73
BCE472DC
B976E253
3CCCEE25
3C11D2BB
BB292FBA
BCC1387A
3C740230
3C86D282
BC63F06A
BC2DCD99
3B599C94
3D03085E
BD05494B
3BB7AA10
BBAADD79
3CC2377D
BCAE28D3
3CF0083B
3BB76AE6
BCCA3DA6
BBE8EC93
3CE75976
BB7D562D
3D01FB4D
BC2E54A7
BCEE00C4
BCEF79A0
3C90EDF9
3CA50939
3C24FA20
3C3ACBAE
BC610569
BC6294B5
3C972B60
BC7007D0
BC212204
3CAE7F04
BBD849AE
BC46F5F3
BBF46888
BD07C55C
3CB3F1D5
BC8A460A
3C14B4A3
BD0E09AE
3D2B5640
3D7685CE
3CB1AA67
3D43FBBD
BCF71A49
BD742983
3C8886ED
BD7A3F7C
BC4427E3
BC8FA377
3CDF0762
BBD1CE54
BCA79EAA
BC4538EF
3D01D7DC
3CC11391
BC558934
3CC24844
BC9FF92F
3D92D0BD
BB27FD35
BB84233B
BC186F42
BC025D73
3B5F8E70
3C7FB5C3
BD38D2AF
3C55E57A
3CFB0B6F
3CEE37EC
3C69A54B
3C88EF93
3CC2CDDB
3D325A5B
3CDBBBE8
3C3E11B4
3D186298
3CD3C7C9
BB84A99D
3B6706E0
BBFFAA9B
BCA911A7
BCED5EDE
3D3A51D6
BBB04DA6
3D0BB419
BC8C1227
3C2BFC73
BC93F225
BC2488E1
3D293D7C
3D0C0F1D
3CFB3489
BCE3A7A5
393601F4
B98B120F
3C90D5DB
BCC0E3F6
3B6094D6
3C6994EF
3CAFA93B
BCDDA08F
BCB73190
BCCF7A5C
BAA6F2F3
3CCB26DA
BB23DEED
3CCFCBBA
BC08666B
3CEE83D7
3CC94F34
BCEBAEA5
3C824D17
3BD1535A
3B7E4972
BB5D0E63
3D29D8E2
3D0A6407
BC605682
3C812AD8
BD4A6A6D
3D001EEF
BCF77D0F
BC872D86
BBE7F3DA
3CF1A346
3C589D50
3C1DFBA9
3C978CE4
3D162810
3C89F8A7
3CE20A4C
3CBFE055
BCF19752
3C7E175D
3CA2DC03
3CA65F7B
3AE80B6D
BC608729
3CAE5223
3CD1947D
3C83A6E9
BC945B6C
3CCAE99E
BD01E2F9
BCED8391
BCCE5314
BCBB4AC4
BC46C54C
3C6500A0
BC892147
BD1C3EE0
BC47537C
BCB5ECEC
3C78B879
3C92B9AC
BB96962F
3CFEC212
BD033D52
3C8D448C
BC3F741F
BCA1DC29
BC92DD88
BC8F0125
3CBA6D19
BD0E7E99
BC93F042
B91B6C0A
3CEBDF16
BBEEB1E4
BC2EE7DF
3C85B00D
BC579512
BCA00193
BCA886D2
3CBBD091
BD08FCC9
BCE1BCE9
BBABDBA6
BABBFE73
3C56A30F
3C439F27
3CDDFCD6
BBD12623
3C003C25
3CBF3DCE
3A55A0D3
BBC1D852
BC15DC2B
BC85BF92
BBE0995D
3C5C0EF5
BC039D84
BD22377D
3CCBFF7D
BCC09CDE
3CCAF55C
3C6C93A7
BB9CBC39
BB717A81
3C468EC5
BCCF77D8
3CF56B52
3CDFD1C2
3BD67705
BC7EA522
3AF0256C
3CEDA306
BC2783D3
3C86CCD9
BB7BCE42
BC4DF33D
BB6B40D6
3D263C90
3CE70F6E
BD02DA8B
3CAA78AF
BD0CF1D1
3BB02F73
BC9A5D79
3CC76A8D
3C18D05B
3CFCBC13
BC133FEE
BBF75EB1
3CF0BB1E
BC9E085E
3962257A
3BD8D8DF
3B9DCA81
BCC43336
BC8EC52A
BD09901C
BC621386
3C13C0D2
3C202920
3C3A6A5F
3D50966B
BC072BE4
39E8E927
3CD24D0A
3CECD68D
BCD0F94D
BC355C6E
3CBACA00
3CA89AF4
3CA1B592
3A519081
3C58F275
BBA8E6A9
3C0087A5
BCF42E70
3D0CB94C
3CACA0DD
3CDC0478
3C674305
BCAF51C7
BC860095
3BF59152
3C76C98B
BC50F8AB
3C8EEE0F
3C2F7A41
BC964F98
3CEAD37E
BD040FDF
3B85B099
BB2FBD1D
BCCD3B52
BBD326D9
3CD43AB5
BB8BA01C
3C6FF8B6
3D0FAA47
3D0506D0
3D0AA682
BCE94904
BC1E72A7
3C95F85A
3B6B56FC
B988C8BC
BC114659
3CFE1A17
3B00A1D1
BD023803
BD061D1B
BC71C326
BCD7E381
3C39D437
3C0E0B71
3CC4F3BA
BC28A322
BCCFED13
BC8F4476
3C9BAFBF
BCC88BC0
BCE15769
BC67026E
3CCCC0D9
BB9067AC
BCD73754
BCD90D4D
BC7DD808
3BF48F1E
3CF8784C
BC80FE62
BCA253B2
BC24D827
3CCA3FBF
BC0603BB
BBBDCEC3
BCEDA555
BC12247B
BCC15D2D
BC9B1FAC
BCE3C6E4
BC8881AF
3CF65F38
BCB941D6
3C1A632E
BD0AE643
BB943F27
3CFC002C
3BC52F4A
BCD5E03C
BBADD729
BC6CCA99
3CA5980A
3CF8FC00
3D0D959A
BBE79235
3C6ACAE5
3CA85950
BCE8423E
BC0EFD9F
3C486B3E
BD0DDB70
3CE683F8
BCE61904
3C8F3593
BC9846E9
BC1D4555
BB31D728
BB4D6D31
3AF135E3
BC21EFDF
BC17A497
BBE555F0
3CEDAD4D
BCA3751A
3CAEC9E2
3C5235C2
3C6864D9
BCB96E4B
BC5CB791
3CFEF9DB
BCA0C2B8
3CCE816D
BC6B045B
BD11C35C
BC41CBE8
BC06294F
BAE19688
BCF7E43D
BC004CEC
3C9FEE12
3A875346
BC597FCE
3BB7F072
BC70A1BE
BCD6DAD8
3C74CE74
3CC4C70F
BB138B38
BBDA8DD6
BCED5C24
BCB06CAF
BB2B705C
3B03EDB6
BCEAD08E
3C9A286B
3C99E9B6
3BEB1562
BBACF328
3C994291
BCABD7F5
BCC306E6
BC44AB2B
BAA29BA1
3CB6C5FA
3D7E6E15
3D3B6871
3D88FF32
3BBB3850
3C979B93
BD2E741C
3D747E07
BCB49096
BD9142CE
BD07E96E
3C984FB8
3CAB9F56
BB9CA3BA
BCB63D74
3C39C6CB
3CC5DC18
BD2C9A42
3D1E529C
BD93D301
3D92E855
3C9A228B
BBFB8298
3D0A8A9D
3D56C391
BC7DD808
BCBF6AAF
BD23DFD9
BC8725C4
BBBEFBA9
3B0BB1CF
BC66DC43
BC5163A0
BD154D8A
3CCAE2E8
3C4F1364
BCFC92F9
BCD18091
3CD75735
BCD7763E
BCDDC35F
3C63B404
BCA76C8B
3C5C5719
BB47393A
BC6CCB04
BBBBCF24
3CF4C031
3C06A988
3CD21A7F
BC1B9760
BC0CE785
BB4989A1
BCCEC992
3C8E1105
BC7F10ED
3CE0407D
BC04CA09
3C8FB118
3C56A1CD
BC92EDE4
BC25A541
3C8106C6
BCE391D5
3CC4FF0E
BC589FD4
BB0D3B3C
BD234BE5
3BCD8011
BC8A10C5
3C9D7709
BB78586C
3CAE5548
3C990017
3AB6A066
BC25A617
BC1D5261
BA935588
3D018754
3D09EF02
3C8F2F12
BD4BCD43
3CB53EDC
3C9BD2FA
3C84DE56
BC76D183
BB31B2EB
BBD216CE
3CE72FBA
BC3AE89F
3CE77920
BC63920B
BC1D8E86
3CF75C22
3B8D74DE
3C83ECBF
3CA9199F
BB282045
BC967309
BCC2BC73
BCDEC446
3C98607F
3C8F9493
3C8E2DF6
3D0CFA9F
BC3D4A0D
BC7E9BE7
BCABD4D0
BCC7E82C
3C37A8E4
3B837C77
BCDE1204
BD135888
BC790753
3C9B64E0
3C1D59CD
3D0D9C00
3C58E9A6
3CE9604C
BB873A06
3BB10302
BC1CF6F1
BCCCC286
3A5651FE
BD0328DF
BB025789
BD1D7618
3B024EFA
3BECA5DB
BCE00FA0
BC65CC78
3CB1828F
3C131EB6
3C789035
BD2C1D2A
3D08C85B
3BE77BE5
3C8CC93C
3CE9C81B
3CBD5A33
BAC41873
BCBC3109
3CDAAA71
BD0F639B
3CA086F4
3D10728F
3CAE72A4
3C84B506
3CAD0C07
3C1302FD
3CF19DD2
BC57FF9B
3CA9AC36
3D0EA3D2
3AE42833
3A1AFAB1
3CD090DC
BC7CAFE9
BC21466C
3C51E9D8
BCB7A5F4
3D420594
BBA9EE91
37CA1398
BCC53742
BCC41D31
3C2C0E7C
BC9BA146
3CD0C4DF
BB0912E4
3CB32CE9
3D05EF7E
BCFAA187
BBA10BFF
3D289657
3C5DC17C
BD29C4DB
BD12669F
BCB69EF8
BC4A13B5
3BAAAE29
3C67CF1C
BD03C5F3
BC60E5F4
BC1D627C
BC8FB14E
3CFFE8B9
3CDCED77
BBD3E8A0
BCB3A0AC
BCF0DE24
3D243EF4
BCD31876
BD150749
3B4A0776
3D0B2E82
3CD9B548
BD06AE8B
3C5F56A8
BCA8F125
3AA595FC
3BA2702D
BB28650E
3C241447
3C5F1F4A
BC6F9B2E
BCB3AB5E
3C3B616A
3AC86C15
BC1CA4D1
3C79CC09
3D0FD205
BB91CC86
3C75FF61
BBC644B3
3CD997EC
3D107223
BCAF41A2
BD218FED
3D07116C
BC99A87D
BCB5777B
BCA7CD39
3D303C8E
39949C6B
BCDF9D1F
BCFC1418
BC303339
BB386EF2
BD1A3E3A
3AB7DB79
3B6919B5
3CBEE010
3CE17ED6
BB51C2D6
BCF09DC2
BCD45953
BCA300EC
BCDDAB41
BC3EFE43
BC81486A
BB1F833E
3B8ACEA6
BC017992
3CB647F0
BD0CAE9A
BBE760F8
BC58C95A
3CAFA681
3CA15301
39CB09F6
3CB02C83
BCB9389B
3B207124
3D09D261
3C262FAA
BCC9BEFB
B72FC05C
3C58E2F0
BC552E30
BC2B0A04
3A992352
3C0C4C49
3BBC89F4
3C8B00AF
BC903A40
BBE6AC87
3C8CB3D8
3BD31E60
BCD98791
BBB6DD8D
BCACD043
BCF09A9D
BCC8DC7D
BD00895D
BA40F020
3D12FA28
3B3CA004
3C94D006
BC2E9D37
3D004916
3CBC1B6F
3CA9E46A
BA30B163
BD10A27A
3C1BFF85
3C88CA09
3C074E68
BCCF37AB
3CAC7000
3D19DBDF
B99C45E0
BD0ADDFA
3C128CCA
BC6C9E8F
3C039D4E
3B052BA3
3BA7BF21
3C6CA8A0
3CA159ED
BCE8364A
BC533B10
BC883EFE
BCD44999
BC41A983
BC7B0EFF
3BA09521
BC73F8F6
BCD3C438
3D1D026F
3C86C658
BC967705
3C44C0FA
BC92FB85
BC553917
385C9E11
BCBB9F12
3D1F998E
3CE8A570
3C672E78
BB180B24
BBD2150B
BCD1CC10
BC521B56
3B1B2387
3CBCDD36
BC8EBB4F
BAC91C94
BCC2D5D3
BCD105AC
BCC907E6
BC25CDF0
BC87B5A1
BBD3F992
BCBD16E2
BCBAA583
BC0D8544
BC53B1C3
BCF4AC45
3D053833
BB9178B9
3C59F82E
BC8A2878
BC3B659C
BCC86488
3BF028DD
3C953013
BB798B1C
BD01ACC3
3C9BA46C
BC4B1903
3CFCA171
3D8BB4BA
3DB94234
3B76DB13
BB4DA05C
BD275E13
3C5962DD
BCA53792
BCD96165
3B98BB8E
BA451823
BD072757
BC4D5080
BC68EFAE
3D448296
3D08F480
BC559E2D
3BF2F0CE
BD82DCE7
3D229D69
BC9220FF
BD09786A
3C1D091B
3D3F0ABD
BC7D8714
3CF34BBD
BBDBF1C3
BBBE0C55
BBA7E19B
3B6D0B87
3CF4A955
38E199E3
BC4849B0
BC300F27
BC8AB0FE
BCDFC746
BC891D4B
3CF18BC9
BB5E700D
BD1A9486
BCEA0085
BC548C49
3CC80DB6
3C30B468
BB9BEB43
BCD9F468
3D2750F7
BC96C391
3CBC64A0
3D043D11
3D6159D2
3C0A037A
BBB12755
3CA54966
BBC3BA54
3CB8A273
BCC98E1E
BCD13009
3D12C60B
3CDFAAC0
BC0B9143
BC4FBDAD
BB845438
3CB05822
3BDF8536
BC609CF9
BCCCEE90
BCA77B39
3CCCA489
3C205A13
3A7600C5
BC3D5D59
3C47721A
3CA85DED
3C45337B
3C1AFFCB
3D460426
3C3FD2E9
3D157DC6
BCA33193
3C2F2303
BC0092AD
BD408257
BA820DD1
BC98D94B
BCDD491C
3C8854CE
3CB6B02B
3C9255A3
3D0B995C
BC896066
3D036601
3D425A32
BD2B2222
3C1EC6AA
3CF07F24
BD14D2F6
3C093B48
BC9850C4
BCAC48C9
BC6990BD
3A45CB84
3CC3657B
3D150DFF
3CD13F22
3C410010
BCC9D13A
BCDEDF1E
3C85BD0E
3C84B755
BCBC7567
BBE2D6A4
BC6185C1
BCBAB64A
3C257DD3
BC1AA304
3CF9BA00
3C0F6ACC
BC3C0C20
BACD80A7
3CB3DDE8
389A9B5C
3C82D74B
3C8ADC9D
BC4595A1
BB48DBD1
3BCE8D2C
BCB3340A
BD15833A
3C5C11E4
BC8A4A3C
3C2DF648
BC15210F
BCFF275D
BCB2B0C2
3CC3067A
BC531A59
BC853B08
3D027D1D
BCAF1F73
3D06AB30
3C9A2362
BD005C7C
BB5E78C7
BBF3A680
BADC981C
3B5A013E
3D1E0DED
BBB08D3C
BCBB0956
3CDD36A7
3D1D1981
3CFB79BE
BCBFA094
3CE7BF97
3B777FFF
BCA36CB7
BB3C6A54
3B804A68
3CB62124
3D074356
3AF50EB5
3CA2A836
3C0836FB
3CF8CBF9
3BB94C52
BCAC7326
3C65AC2C
3C89F440
BC05403C
3C358EC3
BCFC3A0D
3ADBEEFF
BCD94F5C
BC3A94BC
BD335FC4
BD02A313
BC2136C7
BB125D65
3A1DC918
BC995AE5
BCFE4DE4
3CF0AB99
3C9E9369
3C512521
3D1588C9
3C8062FC
3CB37D70
3CA848F4
BCD94B96
BC9BB0CB
BC6C6519
3B8CF9E4
BC8A3401
3BD5C71C
BCFFE26E
3C26C63D
3D315C7F
BBD74F9D
BBF8B9E6
BD22CF02
3C072873
BCD2C31B
BD29746E
BBB0503F
3BE261F5
3C12201E
3C2EEC7D
BC790AAE
3BA61D4B
3CAF8594
BB5224A5
B9DE7B6D
BC64CF22
BC3EB5B3
3C2523A6
BCBA30E9
BCC770D8
3CCE0D74
3D0038D5
BBC28739
3CCE2F6E
BBD54770
BCB1C865
BC8D7096
3D037F46
BBB07818
BD17ADD1
3BCE435A
BCCDCD7E
3D0230E2
BC012091
3C11361E
BA874381
3C62090A
BB8AF628
BCC10DE7
BCF29EB9
BCF19829
BC86ABB6
3CBAB035
3CBD2BA5
BCB58EF8
3B7B01E9
BC0D0DB0
BBE150A8
3AC4E21D
BBF5A7B7
3D165E61
3C0A1151
3AEC2F69
BC8F5EAD
3CED6D56
BBEB901C
BCADBB90
3C25D801
3A342F8C
3C67C7FB
3CE0A882
BC76ED9D
BCB3D916
396E8141
BBB509F8
3C435D4D
BA2D7FEF
BB7AA0F0
BC560BA5
3CF3BFEB
39303D05
BB8C61A3
BCBC95E8
BCE6FA0A
BCFD54F5
BCE45EEF
3BD391F8
3CD020AA
BC29A870
3D1F8AFB
BCEB0CBE
BCC0922C
3C752256
3C8A66F7
3C69C744
3C1C44E5
3C2EADFE
B89FD265
BC3DBD65
BCF1C64C
BACBFD19
3D1C002C
3C3906B2
BBFD2F15
3CCFEB9B
BC9446DF
3CD70210
BCCADE4B
BD067423
BB96D1FF
BBF8637E
BCAA7F9B
BD16506F
BA0C1248
3C1A473F
BCBCA892
3C813A5D
BCCB93E8
3C87E140
BBB5DA02
BC970C21
BCB79746
BC119A06
BAE232E6
3CA2FBAE
3C4062C7
3CDADEDE
3BD9E336
3C9C0BCF
BB9D1BAF
3C92DA98
3BB64BC1
BC9245B3
3CA5ACCD
BCC1502C
3C430E73
3C14A660
3B66D663
BC50ABEA
BD06AF7C
3C85DF07
BB8B2420
3C92A554
3CBB4B30
BC917C95
3CBD33D3
BC618414
BBFEE4E2
3C5DE30A
3B1FF4A8
3CEDFAAF
3C59D70C
BC0CADF9
BCA2DC6E
3AD65AEB
BCEE924F
3C8078CC
3A21CF03
BBF8CC04
BD014D3D
BCE2ED35
BAE2CA90
3D1F25CB
3D8F52EF
3D960037
BCDC1143
BB0E7828
BDAB9C08
3CDC7EBC
3C22A237
BDB2A1D1
BCD01ACB
3CA4A028
BBEA122D
BB6C7BEA
3CFFD13C
3C4F1BC7
3B387D8A
BD38476F
3C8AEB16
BD10BB6F
3D7CB395
BCE4F11B
3C803EB4
3D1FC258
BC6481F5
3C24A0C9
3C9013A9
BC960E2A
3C9F2D57
3CCAEE3B
BC6C5D20
BC9FF782
3B6841C8
3C7F1879
3CC86163
3C6F0F82
3A17CD33
BCCF84D8
BC1F3316
BC6380D9
BCAA692A
BC8F524E
3CB94383
3D043B99
3A8D266F
BCFE64C0
BC7794F7
B95E0BA0
BD0E3CBF
BBFFA552
3D07E33E
3D1E65B1
BD126CEA
3CEBB815
3D2C1AF6
BA5637B0
BC1BABAD
BC14F80A
BD7F8F62
3CE5BC88
BB1A8E61
3C3220E4
BCA3CF48
BBCF3B52
3D05BF77
BD249FF2
BC575EF7
3D06CC88
3D2D3A7B
BC61565C
BD0DD815
3CDD72A2
3C56931F
BC39EB49
3D212DC8
3C981E04
3D182A13
3C7164C7
BC044138
BCA0747F
BD0BE851
BD0C7340
3D2F956A
BB58C680
3BBABF84
3C8FA773
3CF028BD
BCC1DDBB
BBD18599
BC4750F7
3BE7B3AE
3CDCE945
BCE5980A
3CA6EF8E
BC9F88C7
BB8C7D51
3CDA4CE8
3CB0FF11
BBB6EB8F
3C628CBD
BC681ECD
3CF6B427
BC5A4D53
3BA92D0A
3B4D9EAF
3A5B9F23
BCED1AEB
3B1317F5
3C05E3E5
BD32FBD6
3C3C35A6
3CAF80C1
BC5189CB
3CD23EFD
BCD85AD5
BB6356D2
BC9F05EA
3BE6568C
BC3B1A88
BBC48A89
3CA83EAE
BCB9AA7B
BCD84CFE
BCCAD57C
BCB92479
3CD82484
BCD46EED
3C8261DA
3CE51025
BD346FA9
3C9416A3
3CD88BB2
3D332FF3
3BD9817C
BD282BB3
3C5A2149
BB09262F
BB23095A
3C32173F
BCBB18DB
BBCBB159
3C710A2E
BD0CA793
BC1892E9
3B2836C0
BC88D55C
3D0891D5
3C44F2E4
3C9C1037
3CD3A457
BC211869
BC20B790
BC15918D
BC99F001
3C42D491
3CA6AE8B
BCF027E6
3C1F4F91
BCBD775A
3CA5A683
3CE8F8E8
3D216DF4
BCCA2C09
BCBA42F2
3CE0CB52
BB009A6F
3CD5772B
3B14A86E
BACEF774
3C28ABF1
3D0B4818
3C9B7B51
3C9F12B5
3CBEDC14
BBB9B3D6
3C48F6EA
3CB57090
3CFDA0E0
BD082AF7
3BA20625
3CD9BE17
BBC048F0
3BF2309F
3C6C9265
BCBA6B36
BC94F2D6
BC87611D
3CA95A01
3CE82DB1
BC73E616
BB4421AD
3AED4A9C
BC92051B
BC236906
3CEEB987
BCB0BB8A
BC91DEBA
3C7D4D33
3D19C1A8
39C868DC
BC51BF0F
3CA876AC
3CCB068F
3ACC44E8
3CB36EC2
BBC68EC5
3C247B75
BB24BCE3
3C9F000B
3C7BA593
3D06223E
3CB50997
BCBA5C1C
BBBCA4F7
B9E569C9
B9D58DB3
3C8AB530
BD21F589
3CAD11B1
3CA440F2
3C70D4EA
BCAB327E
3C964CDE
BC57A6B0
BC98D519
3D0B2710
BCB882C9
BB35D0B2
3C49CEEC
3CE5CC0D
BCD36497
3B7B9436
BD18050F
BC97F661
3D28835C
BBCF7370
3CDC5099
3BC45D12
3B88CBC1
BB43882B
BD0ECA9E
BABBD4D8
3B652FF0
3CA18CAD
3CD1485D
3B9E50A3
3BEE5BD3
3BEFC93C
BC058652
3D0FFC7D
3C7AFADE
BC7C5DB4
BD09F857
3CBF5119
3D0D121C
3C91A1B3
BCBAC2DF
BBA1B7A0
3C7A984D
BCE836EB
BCC1CB47
BCF3F59B
3C389BBD
BB925EFD
3CD5D702
3B3DE757
3CE05F86
3D0D2C1E
3BD9E3B7
3D090A1A
3CD19950
BC286A17
3CF219C3
3BB58939
3C1B55D2
BC279F16
3D2394AA
BC1B6D2E
3CC0EBEE
BCD8471F
3C5C0C05
BC6340AD
3CC74539
BA90B9CC
BC19D8B9
BCFE37DF
BAEF5BC3
3C54D255
BAF3480C
BC705491
3C9ED289
3C49EA9A
3CC019CC
BCAA6D5C
3C54F01C
BCDA4FA2
3BF5FE8A
3C163D84
BBCEE078
3D23DBA7
BD05C5DD
BB5DF137
BD12BAEE
BC68D251
BCA29846
BCBE4C01
BC5873CA
BC924A1A
BC9B1D5D
BB8F0190
BCCC3994
3CBDB1A7
3CFC20E3
BC2AC82B
3CB81C3C
BCF4F7FA
BBC92070
3BD91F81
3CB97892
3CE2496C
BCE59D48
3C8585B1
3B447EF5
BC2B46D6
3B9CF9A0
BAC9F252
BCCDDBC1
3CE5A287
3CDD03B1
3CEB2BC8
BCD8B60F
BCDF60EE
3C5E3179
3C98B5A4
BC60D52D
3C156CFA
3BF22231
3CBB5BF7
BB2CFCCE
3CD3C17E
BCAA64C3
3CC5F9AA
3C52094D
3C8759FC
BC8FDD8E
3CD3F2FC
3B788FC9
BCFE9A70
BC104898
3A9CC1C2
3CDF54FA
3D07429A
3B2FAE59
3CF430F5
3CEF2694
BCA22666
BC999715
3C0F77D8
BCA36637
BCA43C8B
BC3080D1
3B927E5D
BC705EA2
3A004876
3C426ADF
3D62235B
3CD4FECA
BD60AE61
3CD0F550
BD83A87C
3D87B75C
3D004BEB
3C97EFAB
3D85BA04
3B82FA30
BD099CCC
BBDDAA6B
BB3ED9F0
3C8170E4
BCD928C6
3CD9B68A
3D1094F3
3AAADEE6
3C997FCE
3CBB71FC
BCD9E94B
BCEE6249
BC7442C8
BCF2D682
3C7B8B26
BC412BAF
BD2448B5
3D0D216C
3C6FB240
BBE79DDE
BD1581F8
3C570245
3AB7AB28
BC4B01F1
BD0C3C19
BCA49AEA
3C0BD79A
3C9C30EE
3CC87732
3BA3F136
3CB235DD
BC5DA48B
BC9F92D8
BC4DAE74
BCDDE417
BCF4FD38
BC9BFAD3
3C271151
3B8EC4D4
3D1EE427
BD100C88
BC49E8ED
3CA17FE2
3D09194F
3C41D3E0
BC188FE4
BD107853
BC95365E
BC467382
3D0BAD98
3CA4A0C9
3B24C6F4
3CB0C34C
3D28B14A
3C7B94CC
BCEAB764
BCC8ED7A
3CD7BB3D
BC8B25CE
BD4114D3
BB9D7CBE
BCC22A47
39F05C40
3C1D928D
BB6AC4AF
3C88E1F1
3C0204BD
3D0F5035
3D17FC91
BBFAF0B7
3BB7DBB9
3CA22F6A
BCF7A9BA
BC801C50
3C9C45B1
3C801BAF
3AA7ED9A
3CF2C5F0
3CD203A3
BCAE76A0
3C69BB85
BCD47461
3C976B8C
BC64374D
3C5F761D
3CACDC01
BC023BEF
BC5DF366
BCA19D3E
BB341A23
BC3B1D0D
3B8359BC
3B39F809
BC841BB9
BC59F1E4
3CA219D1
3CE47270
3C8D481D
BCA1D430
BCB161A2
3C2788DB
BC047773
3D1C9F3D
BC511F42
BD01248D
BA84B22C
3C404718
3CE65387
3D592784
BD031D56
BCD262A3
3C83C7D6
BCFA4DA4
BCFAEBC4
BC8FFB20
3D2C17B6
BAB4C13D
BCC34133
3C7F950C
3C790174
3C81E182
BC820F6F
BCEDAF9B
3D62F512
BD0B2994
BC6A8113
3CE8C302
3C5535BC
3C8BFB16
BCBCDA11
BBD3FA69
3CB462A8
BBD0D0BD
BC04E0E5
BD3708E0
BC4C9C91
3CF39376
BCFB5A13
3C55A6FC
BCD915B0
BB3B463D
BC47D8DD
BD159203
BC9CB50D
3C40F883
3CADD200
3C035017
3C3294A8
3B5E40E8
3C6F4BE8
3BFFB46B
B8ED90BD
BCC89565
B9F6BC79
BD08CC07
3CFBB68F
3AE24809
3B69FEB7
BAA5F298
3C85CBF2
BBC2DCDF
3C592AA9
BC6A64F9
BC6EE9C3
3C2E80B1
3CC6CCD9
BBF2B8C5
BC0274CF
BC8B9C4B
3CB002C7
3BE022AA
BB818591
3C24F3D5
BB7F93C9
3D2E726F
3B446F05
BCFCB4F2
3C796760
BD057C76
3C800CCB
399A3666
BD05B88C
BCB29D0B
3CA6B10F
BC9479D5
BD017CA2
BCB5609F
3CA8EE36
BCAAAFD7
3A3A2BD8
BC713272
3C5AB050
3C729FC5
BC861FD5
3CBE4AF4
3B88FBBD
3CBA809A
BC4A7498
3B429F77
BC8550A2
3C20CB06
3D17B975
BD3D0310
3CA25601
BCA0480A
3ADCB6FB
3BE265E6
BD2C4FB4
3B82B0CA
3A115154
3CBA0F25
3CA20A81
3C01C9A4
BD035738
3BDBA730
BB263EC4
3CBA7547
BC289B2A
3C4BFA3F
3CF24FDE
3C6BB774
3C015759
3C97E209
BA6EFA52
3C8EDBD0
3CCB61FE
BD247DF9
3C1E7CA3
BC8A67CD
BB92D8A0
BCC7A4DA
3CE5D689
BC664112
3D162D84
3B213D7D
3C1A6D09
BC8898F6
3C2C8FAB
BC1B8A95
3CC230FD
BCE9E867
3C3C87DB
BB4273D8
3C0C5808
3CA3B32E
3C844E79
3C373DEF
3C8B4EE9
3B7B3EA5
BD10CA38
3CA906BF
BC9A99AA
BC47CE60
3CFB5BF7
3BF3F5F1
3CB94673
3B405499
3A82FE11
3BC10B23
3C3E3631
3C9EBE9D
3C90880E
3C9D9CC9
BCB79C84
3B215E8A
3CAABAF4
BC10DBDB
3D03F62F
BC9E5B6B
3A43856A
BC623F25
3C12F129
3CDF50FE
3CC313E6
3D196F07
3D0BA189
3C8559DC
BCA72D6B
BC9FC131
3C193129
BCAADCB8
BA8909D4
3B29AF66
3CEFA6B7
BCF8BF2E
3CB634A5
BC130409
3CF47629
3CAED500
3CD6D88A
BC88ABD6
BC6ECEEB
BCDE9A8A
3CD43BC1
3B86E1C7
BD0D9BCA
3B9B02E6
3C20C613
3C689078
3AD327DB
3C1915B0
BC6C72F0
3C525D30
BD0DA58A
BCE3A1FB
3CD74D59
BB86FA30
BCD36CC4
BD060CDA
3C0B2A8B
BC3E22E6
3C192454
3BA4879F
BBB43F78
BB4D7C4A
BC824EFA
3CC7E7C0
3AD4F38D
3C3EAACB
3C54F667
BB28F933
3C828F26
BCAF3EE8
BC1302FD
3C10A78D
BCF92F97
3D03AF67
3C7906E7
BA08347E
3D438C7C
3C7BEE23
BCF344D1
3C8F927A
BC5E2C71
3C4995E1
BD2A6091
3BE78F05
3D1EDE2C
3C81FF49
3C8C0E97
BCCBE8A1
3C79166C
3C80A684
3CBB224B
BC3CDC95
3C4837A7
BC1755F2
3D0F8869
BCE28C87
BC2D707C
3C8F64F8
3C3B4693
3B5E5911
BCBB30F9
BCB64501
3D0491CB
BB254778
3B796608
3BA564D4
3C5E3616
BC8E1F7D
3C2719B5
3D148909
3C8ED444
3BC476A7
3C805ECB
3B213011
3CE85DED
3CD8449A
BC0BD2DD
BBBCB553
BCE8657A
BCB2D5E0
BD17CC8B
BCC61E5D
3D0AAD6E
3D089763
BCC2C867
BBF24847
3D21FE07
3C4CEC42
BCBB4769
3CA00E28
3BB4C112
3BF820B9
BCAEC2F7
BC8C183C
BBFA3CC8
3BF42480
3D1F0E33
BC9DF513
BBB51967
BC9D1915
3C923084
BCD45F9E
3C99BE83
BCF7FA78
3C758AC7
39AB436E
3C7E2CC1
BC9BF5CA
3CBED528
BC2F280C
3A96BA41
3D000482
3C1A8C53
3BC9169F
3B10224D
BCE7B4E5
BAEB04C6
3CD9274E
BD23C4CB
39A40FAE
3C1BF219
3C9424E6
3CCDA570
3C886DF8
3D678565
3CC4171C
BBB581ED
BCC7E67E
BCA3ABD7
BBD950A9
BC8A251D
3BBA380A
BCCA5FA0
BD077AE9
3BF07055
BA3F96FC
3C5D1CA6
BBDEF396
3C214EE5
3CF3A86E
BAB00393
BC63C969
3C343A9A
3C55014F
BC32F4B4
3C47CE60
3CE355DB
BB80EFD5
BBE39F77
3CEF181B
3A918CDB
3C37C7ED
3A20324B
3CCE0D3F
BBD58619
3CCBA916
3B45A30D
3B23B7AB
BD3F3C71
3CC3BD8F
BB7C4A69
BD44BA44
B9D9C91B
BCBAD660
3D3411EB
3D8D5E65
BCA4D6AF
BB300E25
3D210533
3CF97679
3C93217B
3C8254A4
3D1E44A9
3D0FFD39
BD28A307
BD1A9D1F
3C25E501
3C02486F
3C70995B
BD03EFC9
3D3AEEE9
3C9B5485
BCAEA7E9
3A926095
BC68E1D6
3D2D0120
BC293228
3CAC0394
3C16E60B
BCA4A318
3C02FD60
BCC02737
BBE3AD64
3D383FFD
3CE6FA75
BC1940B9
3B164628
3C1100B9
3D3017C0
3BF7BFC0
3C727279
39ABF22E
BBF26FCA
BC8CD20B
BC6EDBEB
3D248B15
BBA296EE
BCF10BDC
3C9A9400
3CD3DC56
BCBCB4F2
BC948D8B
BC811BF4
BCFAADE6
BAA26093
BC4ED479
BCF62C42
BCCE6EF9
3D1172B9
3C288DBE
3CE6C4FB
3CB48005
3A0D808F
B9E85C7E
BC03B46B
3C47CA9A
BD006581
3BB693D0
3C6F501A
3C37BF1F
3CFDAD3F
3B97EA2D
BC896356
BB55A005
3BC9B1FB
3CE11BD9
3C8088F2
3C9ED909
B78F17FE
3C95AC3A
3D139574
BC8D10BF
BBCECA3D
BCA68499
3BCD1674
3CD75918
BB9F507D
BBD0D606
3CDD2758
BD16DAD8
3B1C0255
BCA03FDC
3D0219B6
3B0C7E7E
3C56D133
3BAF0049
BC0E6BD4
3CBBA923
3D232C8B
BCDE04CE
3C5595C9
BCAC361F
3C4FAFD6
BCC476F3
BB6913AA
BCBB1DE3
BC0A5A2C
3CC20B08
3B9512B7
BC4F49EA
BC982774
BCC93385
3CB22D0E
BD074B18
BC8034D9
3D18D59F
3CF1B8E0
3B941810
BCAA46C6
3C400680
3CBDD690
BC6939EB
BCEA6274
BCC12F0A
3C80515F
3C214743
BCA2EBBD
BC4E3583
3D0DB3CD
3CE95605
3CA30E58
BC77B6F1
BCE936FB
BCC8E5ED
3D0D6ECE
BCFA0E84
BC511673
BCF30E4A
3B178542
BC73003D
3CA1A60D
BC3CF8AF
BC5EBB0C
BCC2D20D
BCA30C75
3CC02EC4
3C74F7FA
BBF2ABC4
BC2FE7BA
BC75B58F
3C9477F2
BC484A87
3C812C50
BB6A9C6C
BBFDE508
3C388F28
3C87C4F0
3CBE835E
BC9392EF
BB36083A
BC5DA639
3C937FA4
3ACBAE95
BD0C561A
3C2FEC57
3D29A0FE
BBC15D2D
3CDE39DD
3C2ED5D6
3C98B503
BC91793A
3CEAB9E8
BC9BE8FF
B8C1B310
BD03A754
BBFA82E8
3C986C08
3D06ACDD
BC833219
BC3D1BEA
BB821B79
BCE3C2B3
BCE79464
3D130C31
3CF83BB1
3C90EE9A
BCA0ACB3
BC4E13F5
3A0CE579
BBB4A422
BC3909A1
BC21CF08
3BFCC538
3CA48840
3CEBA3BD
3CED9E69
BCDE6D3E
BCA94BBE
BC977C89
3CD9567E
3BD1619C
BCCEF05E
3CA6D44A
3C6194DB
3CE59E8B
BCF03984
BAB5F443
BC0CEA34
BCE81B72
3C90B9C1
3CB445B8
3A02CF0E
3CF4733A
BC8BCE35
BC6924F2
3BBC594D
3B983B0A
3CDDC400
BC7D3CD7
BC2F7F4A
BADF34D9
BCD5406F
BD28B08E
3C312BF2
3B924E36
BBC9EDF5
3CD40BBB
3CE3B801
BAE327D8
BC2FD7CA
BCD390A1
BCA32A72
3C0AD2E2
BCE74C75
3D402321
3CB3DD7D
BC10F86B
3C780AD4
BC9667B6
3D120A23
3C93A132
3C1E541E
BCC87189
3CCB322D
3BFFF1D3
BD411FF0
BB1E6860
B9B2B1F7
3CFD915B
BCAF48C3
BC98AB5D
BCA29952
BCEE4E92
3AE1A3F4
BC1CC614
BC6F1F73
3D4AFAEB
3D07D5ED
3C5BA7C7
3CEFC1C4
BCFA4E45
3C8F7553
BB295DB2
3BF5321C
3CD0C118
3CFB7A95
3C2F265E
BC1F45C0
BCFDB934
3D10441B
BCB1620D
3CB0BA48
BC1B75F2
3D91DD5D
3C68BBAB
BC6CB8FB
3D35DCC6
BD386BD2
3C820B73
BB391F71
BCD8519B
BCCD57D7
3C0A1603
3C868AC9
BC6DCC21
3C9505B6
3D0E9B03
BCD01D84
BBCAB093
3CC99179
3D51DC86
BD142AE0
BCC285B7
BD113181
BC7674D1
3CC34FE1
3D5562D3
3CD2948D
3C6DB2F6
BC80BBB2
3C9828EC
BC97943C
BCE4F00F
3C1C1A5D
BC8B88CA
3C1AD17D
BC2D5249
BC72DA7E
BC27B1F6
BCB0B10D
3CBD2BDA
3CD951AB
3B927C04
BD0DBBFB
3B96FF35
BCD4FC11
3C08B88B
3D02E0D6
3CEFBB7A
3A9DB202
BBCB4A2B
BB74CB44
3C93BD82
BCACED9F
3C97DC96
3D146F08
BC18E23A
BBECC40E
BC8A501B
3CCD815D
3D235174
BCB4F0D8
BCB8EE94
BC4C11BC
3B803788
3C24C180
3BFB3AF4
3D003DC3
3B341B50
BCF1FF8C
BB86420E
3BC9879E
BC90DEAA
3CA3BA4F
BC1051F2
BB0F9C6B
3C9E7495
3B063209
BD60B150
3C99AF69
3C5C1906
BD32D30C
BD07589F
3CC83050
3D2F6C19
3CF59868
BD1DDAA7
BCCB2314
3D4EF14F
3C8DA031
3BD0EAEA
3CDF534D
394E6EE3
3D231360
BD1A9D3A
BC993088
3C1539D9
BA4AE7BD
3C5BACCF
BC1B5F8D
3BF3DF60
BCEBB2D7
BCF92C06
BCFBD3EC
3D3EE9B5
BCAB6EE4
3B33278A
BB925A0A
39016579
3CF11FFE
BADEF7C8
BD3A827D
BC24C6F4
3D2378FC
3CC1E258
BD035372
3CD8A0AB
3D199A8B
BC080D35
BD353501
BBE09DD0
BCEB020C
BC88527F
BC07A362
BCE6EB5C
3C7488D3
3CC8C60D
BB1DD8EE
BC44A39E
BB96F895
BB892401
BCCDB81A
BCAB583E
3B9334BB
3CE3F431
BC7D3621
3CD06863
BC61891C
3D1D249E
BC503460
3CEAA55B
BCBA2E2F
BCDEB207
BCD802C1
BC12F729
BC3BD7B2
BCD569BF
BA4B2DEF
BD08655F
3C429465
3D0B8A0C
3D08E623
3B9EA3C5
3B2C8CBB
BCCC0F38
BB959C09
BC98B67A
BBF31F07
3CE6DB6C
BC936893
3C2A6B79
BCCD6A81
BCDFE2F4
BCBD2667
BD0F05C2
BC82D1A1
3BE45428
3C270D8B
3C4E56A5
3CA0C572
BB897636
BC9BEA0C
BBAB09EF
3CF08894
3C69F4FC
BB2E698A
BCA3AE5B
3CD200E9
3A38BFC7
BA2B252A
BCE4FEF3
3D029D69
BCDE5083
3D03AACA
BC06934D
BCC345D0
3BFA78AD
3CC72B38
3B28884A
BB8919C5
3D079896
3C2C81D4
BBCE3771
3B3C37D4
3CDC7F5D
3C9C08E0
BCA2E898
BCB9DA16
3C2291C6
BC7D8F0C
3CCFFFF3
BC9AE452
3C7812CC
BC73160D
BC8EC489
BCC49053
B8DE683C
BCD41023
BC172063
3CFC20AD
3D1B5089
3C331785
3B1DA79B
3D02EC0E
3C24320E
BC8D108A
3CF65379
3C57C335
3CB5E2DB
BBE02E7E
3CB38E6D
3C88457F
BC9CA8E3
BC3DED36
BBB79CCF
BC2CB784
3C601E4E
BC571880
3B07B0E4
BCBB0128
3CCD0E71
3C800BF4
BB334918
BCF5F83F
3CA9856A
BD0F152C
BBF63A84
3CB1FD08
BCB38533
BBA96C4B
3C78D493
BA8E7046
BCE38AB4
3CA25D8D
BC35C97B
BC897E99
BCC2B8E2
3CD28D36
3C7F469D
BC45DF07
BCAA9F10
BC4164BA
BBBDB2A9
BCF899A5
BCF62846
3C781982
BC0B35F4
3CF8A4F8
BC91B4C9
BA77CC88
3D1F401C
3CF7A7A2
3C16EB54
BBFA4DFA
3C2626DB
3CA2E614
BCC8C42A
3B3C8582
3C62C775
3CCF3054
3C351A29
3BFCF3DC
3BAEC134
BCD60BA5
BD00350F
BC174D44
3D0388B6
BCDD1DB3
3CD9DD57
BCC0D0AB
BC2380F9
3CAD1D04
BCAE9F85
BCC8F323
3C0967B3
3C13491E
3CF77AF6
3CEC145B
3CF49CF5
3D0292D2
BD01AD49
3D0228CF
3CEB4C7F
3C9B8851
3C4AB6DD
3CFF221F
3CD45D1A
BCE00127
BCF2D5E0
BCFB6424
BC84127F
3C8B84CE
3C9CC385
3D5739A3
B9B743AC
BC0B9C36
B999A5B7
3D06F354
3CB612E2
3A6F0A5C
BC5F92A2
BC36D224
BC8D200F
BCAEB91B
3AE999B7
BC689078
BCA1F04B
3C4E12B3
BD4F7CAA
3CB2EED5
3D1559B4
BAE34306
3C02258A
3CB8FA1D
3CCE08A2
BD2F7320
BC588278
3CB6D041
3BAA920F
3C4823F1
BC80A973
3D08344C
BCD8C8B9
3CB4A91F
3C7B43D9
3B66C16B
3D4AA971
3CE76CF7
BC1D21FA
3C648550
3BE39C07
3C87FE9C
3B2F338A
3C80E106
3C0F9B1E
3CFE2097
BB4A53A1
3C73B788
3CC97A68
3D136D4B
3B8E74F8
3CE6A5BC
3C341F57
3D195175
BCB1BA22
BC6C02F3
3D0987B9
3BB5E62B
BCE9F7EB
BD1D4952
BCEADDFA
3CE04E8A
3BD11571
BCEF9E89
BCB4A4B8
BBD5FB8A
3D1EE2E4
BB0D5EF9
3CD8E178
BC8F9E6E
3CF2D616
BB628A4E
3CFF7271
3BF96F58
BCA87BEA
BBE2B27D
3C048230
3C82C004
BC6EE3E3
3D45837D
3CF25EF8
3CB84308
3D16B02B
BD12B4F4
3CFD2C10
3C211FD6
BD01CD45
3B15C77D
BD27EB1B
3CFAC274
3C8E750E
BC329797
BBE7394A
BC4B838C
3D391BFB
3C1A655C
BC6B7D92
BC389F84
BBAB7B84
BCC4BC27
BD37B162
BD2CA8BB
BC1D4347
BCF6F1CF
3D2ED7D4
3C487691
BD076676
BCBE4911
3C481400
3D09142B
3C055B3E
BD13ED88
3A4F3916
BC5DBDB6
3CCBDB00
BBA87A88
BCACBFE7
3C9162FF
3C385B91
BBA407F2
BC58EB54
3BD598A3
BC7007D0
BC9203D9
B9844F97
3D42B0CF
BC9C2713
BBBCABED
BD123811
3CEA004F
3C120BFC
BD34445B
3CE3358F
BD10E688
3D056E84
3C938D7B
BC647347
3C7C610F
3B856067
3CDC0FCB
3AB9894E
BB890D04
3CB06771
3D2A30DB
BD321D6F
3BF5684C
BB681E62
3D1556C4
3C126BDE
BCE71DB1
3D577674
BB72CE69
3CCF209A
3CF161D8
BC7966F4
3D10CFE1
BC0B9D42
BC9F241D
BC4F370A
BC1A952D
3C728B38
BCA3B72A
3ACE9321
3D15104D
BCD0EA69
BCCCA926
BC59BF24
3B67BC92
3D0DE0C9
3C5E8B3B
3BF291C3
BB176BED
3BBA7A0F
3C14BBEF
3CBC8308
3D1787C1
3C58E001
3D04944F
3D162EE1
3CBAB467
BC098F00
3C8D0537
BC9B8349
BB063C1A
3C6C7EAE
BD38D5D5
BB9C6E20
BC0664A9
3B81F0C6
BCC33000
3CBC6251
BCB83FAD
BC0A9565
BCBD0F55
3B5621B5
3D2DBF3B
3C4B6340
BC998974
3B8F80A7
BCA62B43
BCB59111
3D102CD4
BC75AB12
3CCF92E5
3B2F5DFC
3BC71B07
3CB5C803
BCE40563
BCB52729
BBD00B1B
B9FF7FA8
3C9D75FD
BA81F106
3D0DC1BF
BAD3C83F
3CC4A43F
3C51E753
BC5A5912
BC99F001
3BE0EA91
3C6B7381
3CBE8039
39FB432D
BC98EFF1
BCBE59A2
3BFE2C40
BB5B61E6
3CBF6DD4
3D8124A8
3C3AFF45
BCE22955
3CB31642
BCC66722
BD142E20
3CABD902
BD6A1C33
BC6B3E3C
BA0C5E3F
BC9FF858
3C6439D1
3B01CE4C
BC1A0EBF
3CD60667
BBCE90B2
BB136A80
3D1786EA
BCAEA05C
3CA291C6
3C559E98
BD047637
BC89A81F
BC38433D
BCFB3E65
BD147157
3D0D4E17
BBF29E2D
BC925FE9
BC8C4B9E
3C82CEB2
3CD975F3
3C26853A
BCF7EAF3
BCEB3065
3A539A7A
BCE2C69F
BC4958A4
BB1B1773
3CC215EF
BC153221
3BC6D24C
BCC0AA4A
3CBD47F5
BCE0DC19
BCC7E140
3C871F44
BAE5552F
3BCFD6AD
3C82DD95
3C5F84CB
3B2651B9
3D22B628
3D149152
3CDD879B
BCA73025
399B2AAD
3C35016A
BBE617F7
3CBE231C
BCC47BC5
BCB69370
BB1E5E24
BCFC4FDD
BD04DFE9
BD15DE23
3C5C3B6A
3C3D717B
3A042640
3CFD6C72
3C509B8E
3B39E5BF
3C40A35E
BCD60194
3C45D9FF
BD19A7DC
BC881868
BC417657
BC2DA18E
3BDCEFB0
BC0BCEF6
3C36163D
BB8DFC2D
3C27A12F
BCAEF368
3C39911B
BCA96B33
BC9F0A1C
BBA911C7
BB124FCE
BC8E9BDA
BD2DDD53
BAB73663
BC62DE87
3CB0D58B
BC17C690
BCE300EC
BCA93152
BCAF4E37
BC415E04
BBFD22EB
BC0B7534
BC1DF6C1
BA9BE650
BC9B64AB
3BC5F746
3964676B
3C046077
BCF8EFA0
3C85267B
3BF7D1B3
BCFDF5CF
3BC7C551
BC2292D2
3CC1450F
BCC17C01
3C895330
3CA65E6E
BB653CDB
BCD2FC5C
3C370FCC
3A0605AD
3C32AFEB
BB9DB3F0
BBECDE0F
3C982BDB
BCA781EF
BC5406E8
3D5624B5
3CFCC518
BB8B1776
BD01F9A0
BC2D58FF
3B9642F8
3CD7C874
BD34637F
3C604C71
BD15896A
BD4CA75E
BC2D56E6
BC80C0F0
3D814DEB
3C18E204
BC0710C0
BC277235
3D00DABC
3D569919
BD0DE332
BD288BA5
3CD74ED1
3CE33B03
BD102B91
BCBF2255
BC379456
3CCC0633
3BCAF572
BCAF1C4D
BC0B8AC3
BC6F218B
BCB4ACE6
BC88F09F
3BACAAAE
3C971525
BBB26746
3C990702
BB659546
3D1810B3
3C930850
BC56FCD1
3B6556B1
3CD3E98C
397EEBE1
BD401168
3CE6B434
BBAB932C
3DC273FE
3BA45103
3D3F34AE
3CA7A927
BB4E06B4
BC1BBAA6
BC7E01F9
BD994340
BD397156
3C2A5DA2
BC6890E3
3B17932F
BCCB0B2C
3B9F7A19
3C7356A4
BC87E613
BC013620
3D5CA7F1
BBC19C02
3D4B2DFC
3A0C295D
BC67381D
3C8AE2B2
3BB01B26
BC8D5E58
BA9DDDF7
3D21FFB5
3D00474E
BC15B1E3
3C93F225
3D021B2E
3C91AAED
3CF47B67
3C8ADABA
BAA1B61E
BC6F1AD5
39137FBE
3B8C9728
3BD3C854
3CA30D4B
BD06E9E4
3D0E7D56
37C27388
3CA55B39
3CCCDC87
BC6461A9
3D1554C6
BD4FBFFC
BD2B6680
3C9437FB
BD0E92BB
3D53F7B4
3D063A92
3C01D578
BCD2BF8B
BC3DA801
3D4D25EE
3CABDB86
BCC40365
BCB549C4
BBFEC167
BBEB628F
BD0BBA48
3D1EE1F3
3C9D21E4
3D0219B6
BD155B46
3BB569AF
BD29AEF0
3D25B9CE
3B7E3900
BCD5673B
3C3DA9AF
BCC2A059
BCD5E7C9
BD91BF53
3C2DA91B
BC70599A
BD5ACBC9
BC83E568
BCE35D32
3C8F733B
3D771F00
3C0B7EFA
3CD12811
3D82D2D6
BB466F66
3B010853
BC4D4888
3D1B1B5F
3CEF0D34
BD9AC0D4
3BD1DCD7
BBE1127F
3BCD8356
BCB21160
3C4FB910
3DA62D18
BC9B3510
BC43A358
3D2B1BA2
3CE253B2
BC4C6F44
3CFB00F2
BCE4203B
BB6A2A2B
3CB2F0B8
BC6D70B1
3BAC3223
3C902222
3B414C91
3C9BED67
3D004A08
3CDB8C83
BC0EEC2C
3CA9A805
3CA958F5
BBA5CD04
BC8AF69E
BCA6403B
BD01DBF3
BC18219F
3CFE19AC
BC0D1D4A
3CA9D9B8
3D532160
BB059124
BB39135C
3B88D96D
BCCF5D6B
BD2405B4
BCACDE85
BCB7F1A9
3CE957E8
BA62210C
BC80B59D
BD0135F6
BBE5B897
3C850269
3BB9DEF4
BD1BD3D1
BB6A28FE
3D62A0C4
BD323FEE
3D1B2215
3CAF8C4A
3CDD89B3
BC8B78A4
3C7AA4E2
3CE4176C
3B36FC81
3C71A26F
3D0969BC
3CBB773A
BCA3193F
BC949152
BA25A211
3BCA5B18
3C28BA33
3C1CC94F
BB699860
BCDD7D54
3B8B63F7
BCE00849
BC3554E1
3CC7625F
BA4BAF96
BC3BD81D
BC81164B
BC7C7318
3C929670
BC100221
BCEB5FCA
3B582068
3C0BFCAE
3BCDD74E
3C3A3B65
BC3936EE
BABC31CA
BC4CC540
3BF223DF
BC2DFBBC
BD1B2230
BCBFA384
3C0D7DE2
3C3E3708
BD10FAFA
3C064016
BB317583
BD0582F7
BC6E491E
3D181139
BB6AB89B
BBB30EA0
3C7390F1
BCE0DD25
BCEA5000
BC9DB629
3C857A28
3B8349B7
BCE829B5
3CBB10AD
3CBA9B72
3C19AEB3
BC285BD4
3CF63114
3C8C7A97
3CAEBF66
BCA4AC88
BCA2F66F
3C1C8CB3
BD0CB83F
BCBE2930
BC8038A0
3C7FC7CC
BC38B04B
BD359C49
3BC520F1
BB8351DA
BC734430
BC3CAA40
3CAFCCE2
3D579F23
BC509B23
BC2A4FCA
3D118A36
3CD5C026
3C5DB629
BB58BA41
BC79D90A
3CC7CF6D
BC2A6ED4
BD230066
BD0AA194
3CE74A5C
BC45FB21
3CAADE9B
3C861482
3D0CBC56
BC1F44DF
BCB5E4BE
3D2E48E9
3B482E82
BCB2EAA3
BBA92D60
3C6BEB76
BAC0F92F
BCBBF3CC
3AD659E9
BCD6F0DD
BD41A537
3C9C9E9C
3CD21577
BC795414
3CE9548D
3D027038
BCDB724C
BC74AEFF
BC882BE9
3CF5AC55
BC6AB2FC
BCA11DF2
BBC13804
3CE7DC88
BCC2744F
39FDDA58
BD206AF4
3B0E073F
3C168883
BC9F71B5
BCCFD0F9
3BCA7809
BBC9085D
BC78825D
3BD39553
3C3B2789
BC169D1B
3CE83DA1
BCC1B110
BC1E743F
BB2AA687
BCE58ED0
3C19B761
3BA0F559
3C11F6A3
3ACCA184
3C8A68DA
BCFCC583
BC00FFDA
3BD6C0AC
3C95A65A
BCAA677D
BAAADE3B
BC89B266
3CDE0E3E
BC165CEE
BC21E13C
3C290760
3C982525
3B78815C
39DE8C79
3D1A4BC1
3D0E3AA6
3C56E18E
3D169C59
3D1B4A74
3C9B21FA
BD6E36AA
BBFCADD1
3B65AB15
BD4F1DFB
3BFEF223
3B440700
BCCE7DA7
BB34E3CD
BC9C252F
3B03F56D
3C0345A5
BC93066D
BADCB954
BC81DF33
3D2A10E0
BD0A02D3
BD4EEA2E
3C63CB16
3D0AA7C4
BC51A6BC
3B06C8B2
3D1DB51D
3B876E33
3D09A97C
3C8A247C
BCD96349
BC6C0FF4
3CD190EC
BC013946
BBA9771D
3A8021F9
BC1665F3
3B841C44
3C737C64
3CFF1E59
3CC83BA3
3BF7C7A2
BCA6FF13
BCD1B138
BCD53AC5
BC86CB2B
BC89935C
3C53111F
3DB155BB
3B461B02
BB6946D6
3D72CFB1
3AA5B88C
BC301861
BC8B49E0
BD845092
BC8C4080
3C4E46B5
BD1D6A8F
BC894086
3CE17459
3CFAF0CD
BC3DEB88
BCA762B0
3CB9BB78
3D88C4D8
BBF74BFC
3D435AFE
BBAD3BE3
BD528BF4
BD07FFDE
BA807C1A
3CB17F69
3C37A4B2
3C3B32DC
3ACF3C3E
3C27D8F7
BC8AEE71
BCE5064A
3D12F3A8
3B993774
BD2ED296
BBC75529
3CC6635C
3CAE9864
BCD219A8
3CB30008
3CE6D084
3D0FFA2E
BC13B7E3
BCDEEFAF
BC95F2B1
3CA4FDE6
BCAF8B08
BBB195E5
3CDC8034
BC51B930
39D37B45
BC904923
3BC6C928
3C7439F9
BD22BA5A
3BB15288
3C8900FB
BC3DC7E2
3D7010EF
BD0C31ED
3B94B808
3B7743EF
BD0E50C6
BCED711D
3D1E6DC4
3D58DD61
BB7F90EF
BD272721
BD26A6FE
BD1792DF
3C28BD23
3C897E2E
BC1A686C
3D76B6FC
BC9A68CC
3CBCB3E5
BD67188E
3CE802E9
3C199BBD
BD6C55AF
3CBE1BC5
3CCB3B68
3C99C030
3D2F09BE
BD21DAB1
3B3DED61
3CA38327
3D030F14
3C8FF038
3CE64C9B
3AFE9C28
BBA5CB2B
BC894340
BD6771FF
3C2F8818
3BC596A3
3C184FB8
BCCB4147
3CB21C12
3AAAD27C
BC78BC3F
BBA79E80
3D514EDD
3C4B1D35
3B84E4D7
BC1A89A4
BD0D6147
BC8CF03E
3B25DD4A
BD329655
3D05A145
3CCC7813
BD0DA031
3CE0733D
3D1CB4A1
BC12E890
BC33AFC5
3C9E3616
3C44BCC8
BCFCE9CB
3CE33F35
BD0774EF
3B9E63EE
3C9BECFB
BC893858
3BCBB54B
3C8C4A91
BBDBE2BF
3AFF1AFE
3CE6BEE6
BC217AA4
3CA37260
3C62442D
BC8594CA
BD0C021C
3CDF1F4A
BC97AB4D
3C8998D0
BC6C56D6
3CF5851D
3CCC5437
3C42DF79
3D4F8C80
3CE2622B
BCC4A368
3C815F46
BBF6CF95
BC0683DD
BCEE8CA6
3C7F88E2
BCEB7422
3CF400EE
3C575694
BC83364B
BCBD127A
3C426F10
BAE76EBA
3C94BDC7
3CDFD842
BB24C343
3C857738
3C4775E0
BC15AB2D
3CD18B78
3CBF67BF
3C21EEF3
3CAAB764
3A648A0B
3C4FB041
BC84DB67
BC53F621
BCBDC2A3
3AEFE805
BC8140A8
3CA85F2F
3D0847B2
3D8E061D
3BB25FB9
BC621096
3D1FCB0C
3CC5861C
BC3EA3AA
BCB11333
BD1ECF99
BC9F2CB6
BCF6749C
BD03C51C
3C8B8A78
3B9C4AFA
3AB50CBD
3CD55D95
3C6B0319
3CAC72BA
3D153DB5
3B478362
BC5F5134
BC214139
3CB060F1
BB8DDE65
3B45065A
3CAE16C9
BD6CD3D3
BC801C50
BC1DA13B
BC50EC82
3CCC4EC3
3C732668
3CF7C20E
3C976577
3C60FB58
3C7F5A53
3D392C06
BB2BF5E8
3C1D6A09
BC163516
3A63E3AE
3B33DBBA
BD62A638
BCBF1BD4
3CB1E307
3CE87F45
BCA508CE
3CA2EFB9
3D1FE528
3CA60AF7
3D0235EB
3D0749D6
3B97AD46
3D08FDD6
BC882385
3C4F9351
BD0691EA
BCB4ECA7
BCA21F0F
3B953282
3CE2DA55
BD1D7668
3C7229E9
BC84F3F0
BCC3FE92
BC2B9687
3B420117
3CB1B6FD
3CE0A6D4
BD1C7CD9
BC19B22E
BAB2F637
3C833AB3
BD0DA9F2
3C9B2082
BCB4CD31
BD45C953
BC095F65
BCBBF9E1
BC9BCD51
BB4A18E8
3D1B0D6D
BB9F270D
3D07C541
BC733150
3D035AE3
3D197064
3CA59AC4
3B039927
3C127F69
3C0CD236
3B4610F1
BB9644A5
BD1B43D9
BB78025B
3CD8570F
3CF34507
BC7196B1
3CCBCD28
3B8BA9ED
3B4716D5
BCC5C140
3C5B8E31
3D161119
B9B644ED
3CFB7846
BD1D36C2
3C910C2C
3CCE3A20
BD179C4E
3CD4F26B
3C124009
BC91339A
BC2D2A05
3B9B1F96
BCD4EF10
3D19479A
3CBF8917
BCCD79D1
BCD234B6
3C112D85
BCBB4296
3CC00D01
BBBE874F
3CC49F01
BCD0F6FE
BBB7A65F
3CB8D88F
3CCCA164
3D2F64C2
3CF1DB7A
BC99202D
B81775E4
BCCADC32
BCAF4BE8
BC5EFD51
BB7C26D8
3CC7B99D
BD1F455A
BB4A369A
3D6ACCE3
BBCAB32D
3D1BA974
3CF70AC4
BD383CBD
3CB1EC41
3A1C354D
3C3912DC
BCE87ADE
BB9D604E
3CC8414D
3D137B07
3C109DB2
3CB7C3F1
3D0C8AF3
3C2D1C99
3CAF3F53
BCFB451B
BC66743E
BC571236
3BAEC15F
BC421188
3C72155C
BC9EB273
3CD96E30
3C777AF6
3BAFD403
3D4685F6
BB9DCFDF
BC4E1BED
BBF99A76
BCAD779D
3CFC5F97
BCC292ED
BBC81192
3C3F8983
3D8E6828
3B0BE82B
3CF728F7
3D1FFD10
3C2776D2
BD33C0C2
BC80C33F
BD6E9341
B7BBBDF9
3B94CA3C
BCAFFF01
3C8849B0
3AC17BB6
BC13BA11
BBF03588
3C37DC0F
3D40BB7C
3D6E6AC7
BC8E6695
3CF43CB3
3CDFDB32
BCC9320E
BD375841
3D3AA65A
BCCD1A9B
3B639D1E
3C9D883C
3D0228CF
3D1FA88C
BBBAFB69
BCFBE5BF
3D5C0BEA
3C4F4A56
BD2027D9
3BC46BC0
BC66149C
3B371C8C
3C858D08
3CCA7C5B
3D50CF91
3CFDFAD8
BC553A5A
BC9EF559
BD2E34AC
3C61169B
BCAB5300
BCA215D4
3C77E00B
3C5365D9
3BF6EF60
BD13EEE5
3C4AEE3B
3B49A09D
3C8110A1
BC6B1EC7
BC88468B
3BAF4D75
3D292BC3
BD3CDD36
3D004E39
3BB6336E
3CC57C0B
3C6F0DD5
BCA70BDE
3D4D3177
BC662A6C
BD1C6F87
BD09703C
BBE723FC
3D07A5B1
BCBE10A7
3C899FBC
3CFC2799
BB04F5F4
BC573D69
BD8D8178
3CC38668
3C85FC64
BCE45EEF
3C6CA687
3D00BCBE
BC3ECA40
3CCCFC9D
3C96C2F0
3CF73810
3D1635B2
3C428185
3C8D297E
BCAA663B
3CF45649
3D413BF0
BD3D2B54
3BFBD1B3
3D0A2CFA
3CE246E7
3B578AC1
BC8AC47F
3D177C53
BCC1F751
3BFA6145
3CB461D2
3D2A9AA9
3D2E6CC5
3B817A13
BCFEBDE1
BC1AD75C
3CA327EE
3D0C2C5E
BB0D3609
BB4537D8
BC52AE23
BB3798DE
3C11E0BE
3B55BC8B
3B4C4060
3C02214D
BAF33EFC
3C5B8C83
3C9190B7
3B703689
BC94082A
BC8C7A62
BC8B955F
3D12547C
3BB602C6
3D8CBE3A
BC847B90
3D2C2558
3B1F4F3B
BC6D1B21
3CBA7C9E
3C01659B
BC6F3329
BB9A1B4A
3C8769B6
BD1DA547
BCA24D9D
3CA23A88
BC9389EB
3A0CF3B3
3C80CB01
B9CC3CC9
BC041CC5
BBFF8201
3CB21F37
3CEB6AE8
3BEF71FE
BBE3967D
BCF4ED12
BCC0427B
3CAB9361
3C7A44D5
BBCFF9D3
BC08A266
3CAE8584
BD1212D7
3C89EF37
3D00D9AF
3AB2F02D
3C66B1E6
BC8AC7A4
3BD02445
BC95955E
BBA04EEA
3CC6DE41
BB072B58
3CBA38AB
BC4AF5C8
BC9B7E40
3C8FBEBA
BC1400B3
3AE8F44B
3D093965
BCA0ED4B
BC22D36A
3D820C3C
BBEE6A97
3B96152B
3BBD43EE
BCFEE5EF
BCB7F2B6
BC41C384
BC3E24FF
BB204F96
BCC5B0AF
BB8B87B3
BBEAB5AB
3CFBC3C6
BC24BA5F
3CD4D46E
3CF594A2
3D284315
3CF0C459
3C8A89C7
BBE295A1
BCA87824
3CBAD7A2
3BD4261D
3C55B680
3CA0FFF5
BC1150B5
3C79B274
BC7E6D59
BD45E6CA
3CC0EBB8
BBC29D74
3C441EA8
3D2ECC66
3CEC73C7
3D071F44
BB931EAB
3C7A2850
BB816B0F
3C364679
BB77B584
3C2110DC
BCD91255
3C5A0E69
3B2A76E2
BD09B5F7
3CA837F8
3CB2BC15
3CB7FA42
3C15F062
3AF25720
3CC175B6
3CD075CF
BC12FE0A
BAEA3E78
BBE93335
3CA76717
3C8EE7C5
BC9CA5BE
BCB946DE
3D08B729
BC044C00
3CC76E1E
B9CF74E2
BC8D1450
3D0ACE0A
3CF2A6B1
BB9A9E67
3CFF8B30
BC25C084
3D1FCDE1
BCB0F8FC
3C2A999C
3B8F27BB
BC9ED543
3D012F40
BC795EFC
BC843DE8
BCFB74B6
BBFE5012
BD069A69
3B5ADC2F
39CB2739
BC5EA324
BC155653
3C554973
3C1458A8
BC00379E
394993C3
BA65B8A3
BBFCF722
BC17B899
3CB4931A
BD080B9D
BC920DEA
3CDDB0B5
BCC894FA
3C4DB022
3C3117D0
3CEF7B18
3BB2AE69
3CA66B39
BCC010C7
3CA6626A
3CF665B8
3C5197A2
3C8700A5
3C48AE5A
BAF02DD0
3BC31B33
BC2EC28B
3B4531CE
BC024CA1
BCD40216
BB336CA9
3CA7897C
3D0F35AD
BCB297CD
BB9180C6
3CA50F19
3BCD2186
3C451BFE
BC92EC36
BCBF6FED
BC4A4A3C
BCF8AC84
3D8B0483
3D2E4F4E
3D68E5B7
3D5D764D
BA1AAC2D
BD6CB7EF
3D728BBE
BCA2DDE6
BDA007D0
BB809592
3CC149E2
3D1EA67F
BD3BF8EF
3C801026
3D893DCC
3C4C55AF
3CD4DB24
3D2F0A0E
BCB57D90
3D6F1313
BC253E13
3CB96470
3B8481AF
BCFEFB53
3CE70F6E
3B8A40A1
3CB1A4BE
BC96996A
3D54BB5E
3A47E554
3CFEC6AF
BD011D6C
BD1591CD
3D00B150
BC49F948
BCB19356
3BAEE6B3
3C601F25
3C4413C1
3A5E8FF6
BD120155
3D7F82CD
BC9035A2
39A2063E
BCCE0D3F
BC4E32FE
3C84A764
BD83D3CA
BBA08688
3C253254
3D492543
3B9467D6
3CC463A7
3D1F097B
B9470913
BCA84381
3AC29EA1
BC5B7CFE
BC37D26A
3CCCAC4B
BD0780E3
BCED4C69
3C7F1D82
3CF1EE90
BB108D56
BC39AAB1
3BD2B295
3BE10655
BD28603C
3C7DA03F
3CADA702
BD046CAC
BD2C377C
3B9CC3B0
3C55C0FD
3D2BA875
3B2048B5
3D075B3E
BAB68639
3C5558F8
BC45A2A2
3D38C0DC
BCA6687F
BD2A6DE2
BCF66440
BCDAA674
3C949A21
BB9A86BF
3C0DE2E2
3A4161AC
BC5F7398
BBE8BF9D
3C3EEEBE
BC8A7E74
3C54F73E
BC246CC7
BCD2080B
3CAD24FC
3CB64F12
BBDB380A
BCE6C028
3D4108A9
BB8744AD
BB1C2A43
3CBEDC7F
BCD0BE29
3ACD413C
B9511A0E
BADFD9F0
3C2D8C96
BBDC719B
3C902760
3CC00DD7
3C2D58FF
3CD2EB95
BC6E47DC
BC212158
BC168D2A
BC393DA4
3CAE1F63
BCE39241
3BBEDFE5
BABBADEC
3C781337
3CD4BB43
BD06BDBF
BCF601E5
BD03E609
BD41ED5B
BBF11B20
3CD7DFBB
3C131861
3D4FBF25
BBC1CD95
3CEBCEF1
3D73B18E
BC231CC5
BC7ABDA1
3CA26AC4
3D1069C0
3D281C64
BD1E75A1
3C0CFD8A
3A101EFA
3CF03E8C
BCE8067A
BC1EDCBA
3D0DAB34
3D0A389E
BCAA663B
BC2DB977
3C238C8D
BC830030
BCA2397B
BC8E92D5
BD29B810
3C2F72B4
BC1A8445
BCEADC4D
3C776D1F
3D16F743
BCE2F9CA
3AE634FE
BC823381
BC074417
BCB821AF
3CA19B5B
3BAC59FB
BCDE0B84
BBD1A7FE
BD08D343
BB740246
BC01B40A
3BF3C26F
BC398F6E
3CC57123
3ACB6975
BC07415D
3D48A87B
BBC6AE65
3A82F9CE
3C273A01
BB9A71B1
BD0AD221
BC0A9814
3C81516F
BC318ABD
3BC3A7F5
3CB8B080
3B0BC921
3A7B6EBB
3B7E4A1D
3BD104AA
BCDF2270
BCC10873
3CC4DC3E
BCC690A8
3C01F192
BC9B8BE2
BC69D07E
3C6A889F
3D15455C
3B97E87F
BC3C37BF
BB94D96B
3C501267
BCB98C48
BC670344
BD25E735
3C450126
3CE31C9A
3C594DE5
BC2041EA
3AB9539E
BC963ED1
3D149060
BC282C04
BC3A48D1
3B24CB26
BC81560C
3C8E57E7
3C887E54
3D0FFCCD
BCF837EA
3CEC7326
3C7F1E59
3CE19363
BC8D6AED
3BD4CC35
3C6C2CE4
3BBB917C
BC42E191
3C37FB19
3B325F8E
3C1B28F1
3BB3645B
BD0A9E04
BCE4E37A
BC88B3CE
3CE43F0F
3CD42302
3CD1B3F2
3D306D00
BCF4BAF3
BC443E89
BCA17134
3B8867AE
3CDC329B
BAD7E22A
3CFE5612
BD6C4015
BC82EE27
BCF51A94
BCDC5FB2
3BC407ED
3C8C84DE
3D023854
3D0337DE
3C42D857
3AB03D4A
3C2263A2
BCA8C8E2
3C21C334
BC81040C
3B60FBAE
3CCD184C
BC1D4C77
BBD5B8EF
3B0271B5
BC956309
BCA7C89C
3C49F872
3C75D6B1
BBF3DCB1
3CA84FAA
3D59884C
3C949045
3C881E47
BB0D2D25
BC99AD50
BD0ED012
3C0EFCF3
BD61A297
BD32EF91
BCEBA6AD
BC3758C7
BBE60502
3CD020AA
3CC9D6E4
3D27E6B4
BC5302DC
3CA34118
3CFF7BE1
BD25440D
3CDFFF0E
3D018266
BCD77F0D
3CA5771D
3AD22277
BCF5F8AB
BBB6D2FB
BC00CFE9
3CA3D669
BC80F70B
3C1BCC19
3C84790C
BCD80651
3D2A3253
BB7C6C22
3CAA49EB
BCA9E908
BCE8BAD4
3CED3191
3CF65E97
BCEFCF30
3D10A534
3C0A9997
BD1E8668
BB847D3D
3C94F44E
BC1BC025
BB0C8F1A
BCBBAC49
BCB35B0C
3CEAC216
BC5B9552
3C563B0B
3C261C5F
3C15A980
3B4628C4
BCE35108
3CF9ED97
3C4AE643
BC801AA2
BCE80D30
BC3EEC39
3AA7A825
BC73300E
3C91AAB8
3D1B6F42
BC99D925
BCA34077
BB89DBF7
BBF2400E
3C4330D7
3C9075CF
BCBA2058
3CC54DE8
3BF37151
BA86EC99
3D407109
3DFCA42B
3D9B5EA3
BC8E208A
3C9B21C4
BD9A673A
3D575537
BD110A13
BDC9F963
3C2A49EB
3B0FBBCA
BCAC881E
BC8A3C64
BC97EC50
3DAB748D
3D6C0527
BCDDCBC3
3D0FD0A8
BD1FD5A3
3D90E60F
3C03B043
3C2F6472
3D4BBC46
BCF3A5B4
BBBAAC79
3C1BCAEC
3C0784A4
BC992ADF
39EC7092
BC961A53
BC156354
3CC9DD2E
3B808246
BBB8B20E
B9873F58
3B9B0DB8
3CE35D9D
BC7B2EE0
BD0BBF1B
BC71B40D
3B22E7A1
3BF8C54E
3D01D614
3CEE660F
3CC0ECC5
3CCC69D0
3A79794B
BD79B711
BC5D1443
BBBD72D2
3D4299BE
3CDB4CF8
BC9B7897
3C27B11F
3C16E5CB
3BE5CE66
3CDE085E
BD3950D4
BBFB5927
BCB5F80A
3C2CD119
BBFCD350
BCD421C0
BC389C94
3CF522F7
3CFA4002
BC3B3D58
BB8AC845
3B8C6529
BC5F5CF2
BCFE7444
BD20197B
3C04DDCB
BB3DBB37
BCAE5B5D
BC45BAF5
3C5BC15C
3D2CE76F
3C266ACE
BC184444
BCC0895D
BB370B6F
BD0EBAAE
BD46F4CC
BC7107AA
BC264BC4
BCED3EC8
3CE0FAB7
3C8762CB
3D0C305A
BAA4141C
BCD8D54E
3C837352
BC72FC0B
BC822468
BCDDB298
BB73D981
3CB0786E
BCF5903A
BB0D45CE
BD28A76E
3A71F5E2
BCA741F9
BCEF5FD4
3B541165
3C5F435C
3CFADC0A
3B999802
3B4212B5
3CB279D0
3CE011B9
BC95896A
3CB192EA
3C004BAA
BC569E72
BC6D513C
BCB05426
BAB0E464
3C13F179
BBB98674
3BB630BF
BC045D68
3C04EA20
BC55AEF4
3CDFE64F
BD8419BB
BC8CB189
BA0919CD
BD38E5C5
BC25E496
BD02A86C
3CAEB18F
3D8E884C
BB7AF428
BC36C15D
3CC4113C
BC278946
3CD13405
BCEFCDEE
3CBA505E
BC9F1B19
BD88D5AC
3C4A713D
BCE504D2
BC1B7B71
3C8EC347
BCA08CD3
3CD39178
3CD4B6DC
3CBBFE48
3D1F5BE6
3D3AE8EF
3D3AF153
3CAAF46B
BCE3E624
3C101FC8
3D28B404
BCBD4E3F
BC9C626C
3CFACED3
3A0EF7A2
BC257EAA
3AA8950A
3CD35B5C
3CF90895
3CC0006B
BCDD44B4
BCB8C7C8
BBA39836
BCA9266A
BC997120
3CD21A49
3D265C70
BCEB3D30
BC8A7610
3D713796
3C1894AC
3B4C9BCF
3CDD9FB9
3CE4A16A
BCA4FE52
BC747D80
BAF1C021
BCF4B2C5
BBEE3238
3B824CF7
3BA9A078
BD04E004
B9830434
BC5FD9F0
3A6BAD15
BC123FD3
3CB4DDC3
3BAD6452
3CAA0CE4
BA569FC6
BC0DA1EA
3C4B6B38
3D01FDB6
BCB0B7F9
BC95BAE8
BC94C265
BA4CCD00
BAD777CC
BCEAC78A
BD056BCA
BC443478
3C8599D3
BD06DD34
BC7F822C
BAB3AABD
3CAFDDDE
BCA72614
3BE4DD24
BBAF6BA8
3C866509
3CD01373
3BE2803D
BCA3FFBA
3CFE1A17
3CA42DA7
3CBDF1D3
3D1B82C3
3B276F45
BC957E82
3D373175
3A24436C
BC7EF7C2
BBBB674A
3D007B50
BCFEE010
3CC0BF78
BD31FBAB
3CB1B94B
BC8265D6
3CE25022
3CC7BAAA
3CED12BD
BC2561B9
3CE54B7F
BCD1D8A5
3C8E534A
3D0E1918
BC5CB726
3B89A75E
BB882E62
BAF5F438
BC7946A8
BC480CDF
3C3D79DE
BD72F230
3C39F5C5
3C505F94
3B40BA45
BC952348
3D14B81E
BCA71DB1
3D29CB91
BCAB129E
3CA0FD3B
3CE94219
BD0961DE
3B275FD6
3BD9532D
BCB21F37
3B9A84E7
BD432010
BD1D91E1
3BAC3E8D
3C77347F
3C82F3D0
BC857FD1
3BCF6BCE
3C892D3B
39CB4211
3D7C62A2
BBA2E674
3CD134A6
3CD381F3
BCE922D9
BD15E3CD
3BA2CC1D
3C553049
BD3C4403
BC7BEDB7
BC972F26
3CED6F6F
3CBDB065
3C733F27
BB7C03C7
3B938E68
3D1EA282
BAC034E4
3B592F5C
3C7ACBE4
BC0FCC06
BCB4227C
BC6EAF0A
3D1C545F
3CFE64F5
BB540DB4
BCF676B5
BCFF74F5
3CA369FD
3CE5229A
BC59A375
BA91C438
3D3BFDC2
3C8854CE
BC86792B
BBCD7366
BCB04146
3CAFEB15
3CB1111A
3BA8E2CD
BCFC3B85
BCB10C7D
BCB241D1
3C9B2FD1
3CDF478E
3C04BEC1
BA94A2BA
3CED12BD
BB378919
3CA7550E
BA003669
BC8B8829
3CDA077E
3C2BFA5A
BC5275EF
BC10F769
BC8F9966
BB99BC7F
BAE13A98
BCAC0039
BC34E5BB
3D02D7D1
3ADAB192
BB0FD9FD
BCC915BE
3CA2BD64
3CA17749
3CB1AB08
BCBE3CB1
3AB7B437
BC6DF6E9
BC8A8CEC
3D046895
BA8AAD43
BC911A04
3C3DB786
3D95AB8B
3DA6917F
BC8B955F
3B112933
BD941BC6
3CF6FF3B
3D010E38
BD25209C
BCCEF383
3D445D5D
3CA8BA69
BCE1EAA1
BC95A767
3D995B94
3BEC636B
BD5B3D8E
BC5D3DC9
BD9F5474
3D91583F
3D1601CA
3CC51C34
3D86E837
BD2D2FC9
3C937161
BC40555B
3C466392
BC1CA4DC
3B9F0E38
BC92F3C3
3B67F4C6
BC281C13
BCC4BA44
BB953115
BCC36B5A
BCAD4C9F
3CBCF3DC
BC50B87F
BBD99776
BD13F0AD
BBA0B3EA
BB3DA30E
3D028581
BCBBAFA4
3C1984C1
3CFA3C72
3C50F4E5
BAC0BB72
3C923953
3C8E8EA4
3C8AD32D
BB924136
3CA52EF9
3D534B87
BD0B295F
BC89AB7A
BC5A0458
BD3B29D7
39F84916
BB08B297
BB7FE04B
3BAEBD42
BCF6021B
3D0FC24B
3BC75BCA
3CCF2BED
3BCEB0A8
3D57423C
3B014A98
3C698ADE
3C124A3A
BC2643CC
BBE8923B
3D0EC37D
BCCFDC4C
3C4065B6
3D070740
3CCD1DC0
3D39830E
3C986262
BC9D773F
3CE5163A
BCD27045
BC814E49
3CCEC1CF
3CE8C0B4
3C8BEF22
3CF587A1
BB43758B
BB50A51F
BC8A29F0
BBC66468
3C92C534
BCC25403
3D35A5B9
BCCB27B1
BD149350
BC9B895E
3C74FD02
3CDD532D
BBE3841E
3CA415F4
3BEFDC9C
3CBD01B3
BC865153
3BC8AF87
3C1F1894
3C0B37ED
3C6866F2
BCE42DDD
3D463A26
BCDEB0C5
3CAFC0EE
BBF9F96B
BC744C02
BC33EC2B
BAF78736
BCDA052F
3C2314F8
BB2F87ED
BC13D7A3
BD131EA6
3BB6C6D1
3C82E233
3C23579E
BD637784
3D1A6BD7
BC75401E
BC3DA654
BC0FBEBA
BCE36779
BB8726E6
3D3984BC
3CB67EE2
BC60DD90
3D2CBF46
3CE0FDA7
3C6C0145
3CCFE9B8
BB1A9496
3A395043
BCC9AD5E
BCBD4AAE
BBD83E5B
3BAB9092
3B94F5B0
3CA04CA7
3D588C89
BBDFA770
3B774A4F
3ADFB054
3D435E59
BBA9B296
3C8BC3B8
3C8C235A
BD1A579A
3CD570E0
BCF9D21E
BC6E392E
3CF20ADF
BC3B971A
BC9414F5
BC22D191
3D116D7B
BC368FDF
3C9F6BA0
BCC1DA2B
3B1653EA
BB77BF95
BC1CEDF7
3C3A2F3B
BC44BE0B
BCBDAB5C
BCD0385C
3CA696A2
3D114446
3C08979E
BC11D9D2
3D2E6A26
BCB1C575
3C50734A
3BC4F33A
BD498F10
BCAD7AC2
BB437434
BD03259F
3C889E6A
3CDF5093
BB29E516
BBC0F325
BCDB501D
BBA1B5C8
3D2C857F
3B7E6576
3CC8F4D1
3C99E809
3CFE0A27
3C81A0EA
BC000879
3CA0C141
BC2B0E36
3C838195
BC9D73AE
BB3C0859
3C9E26C7
BCA46321
BCB7B61A
BCCAD46F
BBAA7EDA
3CE84ED4
BC511FAD
BCBC0ADE
BCA2AF22
3C5595C9
3BFB6ADA
3CF18655
3C5BAE11
3C7B634E
BAEC1CF4
BC8C6B48
3CB4D70D
3C13AFB5
3C5EF848
BC0B84D9
BCA555FB
3D05A200
BC56BAF8
3CDB5709
BCB58B9D
38C2A6F6
BC8F00B9
BCB38137
3B417E90
3AA04255
3BBA441F
3CD89416
BD116F94
3C6D0694
3AFA2A53
3CB34F18
BBAAD617
3C2930E6
3D12A9F1
BCC83340
3C97126B
BB3EFB7E
3C5C4E4A
BCA0E553
3D126AB6
BC8819E0
BC1BBA46
3B487047
BC356C5E
BD0CB8AB
BCA2F025
3C64840E
BCBC93CF
BB75D98B
3CC3504C
3B871471
3D5F6216
3CCA55FA
3D04A72F
BC190CC1
BC197938
3AB00CF9
BD10CA88
BCBCFE58
3C57AE3D
BBF96BFD
3BA2793C
396CD62D
3D559990
3CFE41F0
3C2DD815
3D2653A1
3CBDC5FE
BB9DB141
3D3E66F3
3CAC0C99
3C2E02DD
3C74F50A
BCBC92F9
3BAB3106
3C8C3C19
3BD18960
BBC4DEC2
BCFD2A2D
3CDE0E3E
BBF7696E
BCA93624
BC1760C5
3B181BC0
BB7E1F2A
BCAB8CE1
BC85704D
BCDD5E80
BD1CB01F
BC1BB2B9
3B111FA3
BC217ECB
3CA7EBD7
BCC71C54
3C7B55E2
BCD916F3
BA3A88A8
BCB4765F
BA2D0EA8
BCE598AB
BBCD4456
3C234B3E
3C93AFAA
3CE0DF74
BD06A7F0
BC05B8BC
BCA25311
BD065981
BC2BEDC5
BC49C9E3
3CAF6802
BCC68AFF
3C2808C8
3C7F6322
BC32829F
3C8AC952
BCE28D28
BA6AA717
3BD636C3
3C5EF5C4
3CBC24DF
3A61B4EF
3C83CAFB
BC9B1F76
3BC34BC5
3CF585F4
3CE89FC7
BC846A93
3CB942E2
BC70F1DB
BC660A8B
3CDD528C
3B831C2A
3CC4D8AD
BC193571
BC81A07F
BC178FBF
BC0CD0FF
3B4843D1
3CB4A559
BC56E0B7
3C7A3B9B
3D2D9422
3C82DED8
BCA2159F
BBAF5CA4
3B8CD6A8
3C38A4F8
3CB4FDD9
BD36B6FC
3BB735CC
BBE6A942
3B5E6221
35E1783D
BC49EE61
3BEAFEA7
3C13E6C7
BC7C3357
3CA9505B
BD0B196E
3CC16ECB
3CE1B1CC
3C60DDFC
3CC4B49B
3BC120DD
BAA6FE06
BB33BDB2
3C9B2B34
BCA3E2FE
3A251194
BCB6AE48
3CE8D1E6
BCA52A5C
BCA45B5F
BC3B2936
B87DA540
BBD20093
BC551860
BC946C9F
BD13D809
BCC540E7
BC864742
3D24F781
3D0AE7A0
BBF25837
3BDCD355
3CDC2565
BC56DCF1
BC4BF170
3A620826
3B8A93C2
3D95148C
3D1E9B46
BC4EF59C
3D4CABAA
BCFD22A0
BD42B13B
3B5C97F1
BCB33D7A
BC9A6033
BBE0B420
3C2A8E49
BC9F41E5
3BA36AA9
3C737619
3CBE8DA5
BC258489
3D0CB07D
3D0C5020
BCD56F33
3BD5C75D
3B1ADA0B
BD016921
3CA2EE42
BB94193D
BC8AFFA3
3D029ACA
3BC03B2E
3CEEE668
3C790C5B
BB8A5DA7
BCC97270
BC9C10A2
BCDCAD15
BCB92627
BCB046BA
3D139269
BC1B0016
3CDD1981
BBD3CA2D
3CDA6D6A
3C33A6F6
BBF6249F
3A6D73BF
3C5B69B3
3D255F50
3CEB4F6F
BCCDA9A1
3D192916
BCE9EF1D
BC1B41C5
3C84C8F2
3C20694C
3C6AA590
BD221010
BC2B7F0A
BD25A434
3D25F344
3D129C1A
3A280C68
3CA5639D
3BEF4A10
BC8D8DBD
3C98746B
3D25BA39
3D4AC556
3CE9B612
38DA3458
BC2496B8
BCECEB1B
3CEE12CD
3BBE83B4
38BE3FB2
3C8AAA7E
3D0ADA9F
BB5F3AE4
BD37178F
3C7208C6
3BF73C4D
BD3C10A2
BCC3D8D3
3B093197
BC350B7B
3C839475
3C8949C0
BCE48DE9
3C7AD80D
BCAC3C34
3C04748F
3C79DA4C
BC9588C9
BC973506
BC1D40A3
3BF77B8D
BD01A60D
BCB6F0C2
BCEA53C6
BBFF3B74
3D1281AD
BB91B143
3CEDA76E
BCE08F21
BB930E65
3D20B425
3ACAD221
3CB51124
BD1AAF79
BBF345F3
3C54053B
BD280984
3C3FCFFA
3CEC2E92
BC036D12
B9371DB0
BC81281E
3C910C2C
3CD9A665
3C8311CE
BCA2EA46
BBA327CD
BACEC97C
3CB9D833
BCEF5706
BB041A56
BA5FF7CD
3C3465CE
BAA82A00
BC0044A9
3C326E11
3CF6ED67
3CF55FFE
BCBC01D9
3C6A1E82
BD08720F
3CBA449F
BCA544C9
3BBBFC30
BCCB000E
BC421690
BC098F15
3CCCBE1F
BC4D522E
BC253B23
BAB7BBEF
BC503171
3B3B5988
BCF8165C
3CCF72CF
BD059296
3C308FEB
3C8D1882
3CC17EBB
BC4EF241
BC38D7B8
BC930E2F
3CF7D849
BD238A7E
3B4680AD
3C072DE7
3BC709BF
3CA16865
3CC35A93
BCEBA4FF
3CF790C6
BC90360E
3D286529
3D02F86D
BD2B60A1
3C90115B
BC96381B
3D0F7503
3C84A8A6
BCBAF88F
BC27C3FF
3CC380BE
3CE39566
3D2ACC5C
3D219455
3ADDFDCD
3CDBDC34
3C8C4080
BD1BCD86
BC6C4B83
BC4D6B58
BCECEC27
BC138208
3D05614E
BB2A8E89
3AB8396D
3C1BAE06
BCAC8422
BC88A556
3BF92382
BC576D3A
BCFD09AB
3CE14A68
3AC1BB21
BBEB3AF7
BC6B5DB2
BCB46994
3CD03EA7
BAC5E2CE
3CF333D4
3C9A4A9A
BCCB739C
3CDDD3F1
3CD8FAD8
3BC7A79F
3D45C0D4
BC7D7DDA
BD010442
BB379355
3B74074E
BC1D1C91
3C9BFF04
3CE7A08E
3D1748BC
BCD7B594
BD2CED69
BCD166FB
BCADF358
BC85AE2A
BD0B3A5B
3D09AD43
3C64E12B
BC76F4BF
3CB0E652
3C4F6167
3D3997B6
BBFCB74B
BCA4FDB1
3C8039AC
BCA7FA50
3C8A6A1C
BC573358
3C4204F3
BC8A9809
3BBA3053
3CCDE63D
3CC51B93
3BCF21E7
BBFF91C6
3D086021
BBD47C9A
3C8F6670
3D24770D
3D068570
BCEAB5B6
BC68B561
3B1299F6
3C113364
BC9F85D7
BC671FCA
3BB2BD97
BCF404B5
3CE63879
3AF2A9AB
BCE2D949
3CF9F01C
3C645F91
BC6AC6B3
3B5047AC
BB8B4DA6
3C94D2F6
3BA598C1
BCD0AC8B
BBFE68FC
BC463D67
3BE9FFE3
BAED7539
3BB48050
3CE95853
3CBA3586
BCA61FF0
BC30502A
BC98D8DF
BCC14728
3C85D23C
3C8CBF97
BC616B55
BB57BABC
BC637444
3A220EA2
BC81D3AA
BCA1D0D5
BCDE742A
3C407E0A
BC729620
BBA3CD4F
3CC11391
BBE6B37E
3CB09310
3BE47D99
3C8250A8
BCE97EB4
3C5C4E4A
3BF1C8B0
BC967085
3C8E5AD7
3CF4A0F1
3C3ED95A
BBC2A3D4
3BEC1A45
3B394E40
3CE1B3E5
3D648825
3B072B83
3CA94142
3C8DD10E
BBB09C2A
BCE9BD69
BD4E8244
3BC17494
3D26C74A
BD163257
BBF98D60
3C587E46
3D5B2DB9
BC2C2EC8
3C265351
BC47DA8A
3CC595A1
3D31E307
BD5BF9FC
BD49757A
3C0ED815
3BFC0F5B
BC92BE49
3C8B51D8
3D260A56
BCEAEAC5
3C0AB8F6
3CBE2CF7
3BCFE17F
BC97099C
BCFAED72
BD08C1F6
3C29B42E
BD071B98
BB008EB1
3C5541E6
3C369553
3D0F2C08
BC34F82F
BBA8AB04
BC2B9F56
3CD8A2FA
3CF17706
3C40D5B3
BD10B7C3
3BE6A464
3D579FFA
3D443FCB
3D00CC5E
3C60F579
BD0F84BD
BCF29A51
3CA4E202
BD055C10
BD4ED337
3CA10A06
BC3A07CE
BCF9884C
BC1DFA9D
3D45DC83
3C0468A5
3CBF5332
3C80F3E6
3C28283D
BCC5E8E3
3D1FA3D5
BD077773
BD618CFE
BC43E45B
3BF6ABC3
BC9A9BC2
3CCAA682
BBA84D26
3C60D9CA
3C1E384F
BB7FEA31
BCA118B4
BC580007
3D09167A
BD24D933
3CB7344A
BC2502EF
BC456F0A
BC6C508B
BC6D74E3
3CBCCB98
3BC49444
BBD93276
BC5A65A7
BCC8988B
BBA7ACD8
3CB085DA
BCB13313
BC3D372E
BCF18A1B
3BD30E85
BCD14FB4
3D70109F
3C9E6363
BCDC1037
BCED1F1D
BD493477
3CA83DA1
3C9A3063
BCCF5EE3
BD01599C
3C5903A7
3C13F0F9
BD10C14E
3CA16286
3D251DAC
3BA52A46
BC8C8910
BD0DFCFE
BC92C45E
3D501D9F
BC03B267
B90A3342
3C8A6E83
3C8F3486
BC8AD978
BCD70BEB
3CFB8FC3
B8E30CDE
BD2365E6
BC5E459B
BC04FA86
3CC62838
3D80238C
BD180E7F
B94DE867
3C9A0C1B
BCF069C0
BC609501
3C96620C
3D11C87F
3D0CB769
BCAF2BD2
3C1DEDDC
BCF2E606
3CDFD263
BCCD6BF9
3CA019E6
3CFEDA9C
3CFD7F1C
3CDDAD5A
BC531EF6
3CC43D11
3C21D2D9
3C2C9BD5
3BCAEACA
BB80AA09
3D1E82BD
BBB44BA2
BD3B2936
BB2158AB
BB00EEFE
BAD1A6A6
BB724A60
3CF473DB
3D25143C
3D24246D
BD068B6A
3C95C48D
BC85DED2
3D243C1F
BBD1B326
3C1E19BC
BC92428D
3D0624F8
BCA51274
3D2C947E
BCE8D1B0
BC95F56A
3CC59352
3CFFA4FC
BB261DB6
BD0162A1
3C08C93D
BCC5791B
3BDC750B
3BB17D91
3C432010
BC914B82
3CC7ADDF
3C5D0310
3C56FE14
BBBB143E
3CBFEF6F
BCBA0E19
3CBB6490
BD06C5D2
BC26AE55
3B32E1EA
3CCD788F
BC97928E
3C91FCED
BC05C22C
3C979D0A
3BA114E3
3BD2A99B
BB9EE8F9
BCD00531
BCF91C16
BCBECD30
3BF646C4
3CE11C7B
3CCD594F
3CACBC8C
3CE8CD13
BB0105A4
3C95FA3D
BD1EAAE6
BC9726C3
BC6ABDE4
3C8D8B6E
BC25558F
BC91EA43
3D28655F
3CB1ADF8
BC829F82
3CC07612
3D043010
BCA37D7E
BCC171F0
3C83F706
BC6E469A
3C8A6B5E
BCA2991D
BBEDEB55
BB38782C
BC122FCE
3A585654
BC29A799
3C7526F4
3CC9921A
3D094E78
BCA6ADEA
BC548593
BD13052B
BAB6BCEB
3C95097D
3C3EAD4F
3D26813E
3BCF7FDB
BA128020
BD60AFF3
3C1D9B71
BC9125C2
BD0E4B37
BD0E2CB4
BB38650C
BCB35166
3D5BEE8E
3C40F5FF
3C16531E
3AC4EF33
3CE85264
BBC206CB
3C1CE701
BBAB1BE3
3CF067DD
3B364623
BCAF49CF
BCDE4961
BC73B3C1
BCC3DC99
BCC8DF37
3D6B8FB6
3D17A538
3A1AC195
3CA1E05A
3D08ED7A
3C95E402
BC7FD96A
3CCE8DCD
3C932C2D
BCA97E49
BC21293B
3BC80944
3B968E77
3CB0BE79
3CD29605
BCA2C6D4
3CA86869
3BAB85D5
BA7D7CA9
3D05ED9B
3D271385
BCA8785A
3C5C6195
3C018E35
3AF988ED
BCC118CF
3D2752C0
BBACFD24
BC56A8EF
BC88D668
BB077225
BCA20AED
3D073D41
3B908E99
BB709EB9
3C74A417
BC69AFC7
3C92CB7F
3C308C24
BCF45140
BBE707B7
BC8CD3B8
BCE47DF9
396B8F7D
BCE50B88
3AC89708
3D207307
3BF42597
3CF4E916
3BDC3BC0
BBC934D2
BCADC0CE
3D087A73
3CC800EB
BC5F167B
BB9D9F38
3C8A1929
BD0ACBA0
BCC1C88D
3A6042B2
3C96F0DD
3CAF661F
BBD030AF
BCA4CC68
3CDC9598
3CB4F433
BBF785DE
3D0D0353
3D1AE396
BC03D019
3C376DC0
BC7711AF
3BE388FC
3D00B186
BB780890
3CAF05A7
3BB38C09
3A3C2955
BCFDFA37
BD59E20E
BD468B1A
3BCFE90C
3D2A3A30
3CEA6026
BA9DD0E1
3BCEFAA4
3D2E04F6
3BB77085
BD0A27F2
3D4536F1
BCA90258
BC059C77
BCAF34D7
BD2B43E6
3CD2C930
BD40EE3D
3D34850D
BD6B3299
3CDAA16C
3CF4F682
BCFB9171
BCD56232
BC9B60AF
BB68B6B8
BC9B12AB
BD03A87C
3C1FD532
BC3DC4F2
3CEC30AB
BCC49419
3C4C13D5
BC698351
3C059454
BD0027F3
3C943541
BB2F305A
BCEAB4AA
BCB9477F
3C1DA745
3C901308
BC8C168F
3C913BFD
3BCA8FB1
3C91E5A6
BCF14E57
3CDB4352
3CF4EB64
3D21CE01
3CC065EC
BC4F55A9
BC35455C
BA943150
39864257
BCB2FF66
BC09E1AB
BCEC53E6
BC8F6DFC
3CB84D84
3CE67C00
BC5A6BF2
3C8D28DD
3D3E43EE
BC8509C0
BC151F4C
BD416759
BC3978C8
BC94E85A
3D0E1298
3C9B0285
3B1B776A
3D4A72D0
3D378A7B
BD050A61
BB0F122C
3CC91FCF
BBA641DE
3BD8EB29
BC878855
BD2CC4F0
BC6855BF
BC470436
3B4D08B2
3CEA4518
BBC16E75
3CDB5FA2
3CA23E4E
BC17B7F8
3D08CCC3
3CFEB2C3
BD1116A9
3C83027E
BC852828
3C787E97
3D0CEA29
BABE2514
3D30B194
3CB0E2C1
3D0563ED
BCA5F202
3C80B16B
3CF63DDF
BD29C794
BD2788F6
BD098EA4
BC18A761
3D10318C
3B258560
3B8FE667
BB35CED9
BCC0A110
3CA73564
3CD9A69A
3C6E2C99
3CCAC952
BCDFFF0E
BBC4C0BA
BD42E67F
3C0F6CFB
3B54405F
3BE13A42
3AB11E71
3CD0B8B5
3CD514D0
BD02971F
3CAC6B63
BC43C5BD
3A90948D
3CF984BC
BC35C5B5
3CEDE622
3C861050
3CA9581E
BCB80AD4
3B197303
BCA36347
BBAD86A1
3D035895
3BB7DD92
BB287E0E
BCFD3D43
BD055773
3CD94DAF
BBEA52C5
3C39E3BC
BA2D7BD7
3B8C3C64
BD10F0B3
3CED7E89
3C778573
3C681883
3AC3613E
BC883F9F
BD1A06A7
BAA97FEC
3CAC88F5
BC50DA79
BBEB30A6
3D0AAA63
BB8505F9
BD0D44DD
3BAAF0DA
3D094086
3CB0856E
BB110A7F
BCBCD000
3BAAA835
BC3DF81E
BBFFC283
3796AF77
3CB972E8
3AD36D50
BC6FA681
3CCA808D
BC4A78CA
BC4E55CE
BB532887
3CA6E8A2
3CDB4719
3BCD98FB
3BB5E47E
BD22F9E5
BCE4865D
3B59AEB3
BC89F0AF
BD07CA14
BC8D21F2
BB228DDF
BC534953
BCE0CEAD
BB9FCC39
38CB74B1
3BCF4EC8
3C97E996
BACC4D4B
BCEAD851
BB99EE28
BC649E7B
3CA41264
391C1121
BCB97C23
BA65F60B
BCAC1999
BC6ACA0E
3BD70560
3ADAC101
BC588857
BC34704A
3CC2DB47
BA859454
BB4319F1
3BFB74AB
BC6D0CDE
3B89E12A
BCB85E81
BA9D449F
3C5E0B4E
BD008CEE
3CE243C2
BD0C7A62
3CB2F703
BC753B81
3BBEC914
3AAFDDA9
3CCE142A
BBC580A8
3D04FCBF
BD1A1032
3B866448
BCB7376F
BCCB493F
3D043ADD
BCA066DE
BCAE1156
3CEBACC2
BBD2183B
3CAF76B0
3BD41A34
BC61B4BB
3D24AAA5
BD2C02A2
3BFE4FA7
3CAF643C
BB5533A4
3B4CDA64
3CBA52E2
3C9C26DD
3D1AB218
BCD28CCA
BC018978
3C482BE9
3C8F8C2F
BD66700C
3C29167A
BCAA6E69
BCD70139
3D601091
BCEA32D9
3AB7F956
3CC32A21
BC342246
BC89CDDF
BB83085E
3BDEE513
3CA66B39
BC3A4D6E
BD19ED7C
3CD65AB5
BA3CB462
BC691786
BD0D0918
3CD47F13
3CD03EA7
3C517C5F
3D2784A9
BBBAB6F6
BB6A099F
3D1EA5DD
BCC6F984
BCD0554D
3CA68032
BCC9C9AD
BC22E3A5
3C3969AE
BC66E222
B67B5690
3BE06BA6
3D1834FB
3B85CF8D
3CC189D8
3BB91449
BC82EC44
BBCF36B4
3D148909
3C015CD7
3C544F0D
BB02E248
3D24327A
3D03CF2D
3CB61F0B
BCC584DA
3CB71327
BC08B820
BCBAE28A
BC5793D0
3CCAF775
3C106365
BCB2EDFE
BC723903
3AEB234F
3B1AE142
BC4C2430
3CB1377B
BBC4E25D
BC07D577
BCC4CBAC
3BC9D15A
BCADE11A
BC7E40E3
3CAE24D6
BCF0F8FC
3C2DEFFD
BCC2F182
3CFCAF48
3BE2AF78
39E02C03
BCD7774B
3D0B2E17
3CC5ECDF
BD1E7BB6
3B1839F3
BCD43252
BD216144
BBE5F4BC
BC195608
3CE3FAE7
3CCCBD48
BB22F30A
3C69C454
3C90385C
BD0373D8
3D13DFCC
BCAA0E5C
3C828CA2
BC9D210E
BC69FC1D
BBB85359
BC757273
3C11033D
BD017C52
BC66B972
BD0F7157
BC813A93
3CB565DE
3A8B037F
3C1612BC
BBB62251
3CAF6CD5
3CA7E1C6
BB328579
3C0B8EF5
BCA638AF
BC868B34
BD0676C2
3B58FD32
3D0A994C
BD029BF1
3D0A1C33
BC63E293
3C8C0775
3D67C1B0
BD0365E6
BD391311
BC39C8E4
BBB1ABB4
BD01079D
3C8455D0
BCE4C1EC
3C267473
3CB86968
3D0073F9
3C48B8D6
3D032F2A
3C92263E
3CCCD48F
3D01D283
3CA2EDA1
BC303694
3C5B460C
BCC81FF5
3CA12183
BA2EB62E
BBCA75DA
3CC73655
3C524BFD
3CD08AFD
BC925E3C
BC990C76
BBD3144F
BB8AD6C9
3D0ECCB7
3CE3849F
3B6BAF3B
BAD35176
BCE1F3DB
BC470070
BC870A81
BBA425A4
BBCE2F4D
3CF9A466
3C1CE4DD
3CB96DE0
3B91C5E6
3CC6313D
BC499A7E
BC72A031
3C0E4F0E
BA7F7BC3
BB0DB560
BC870F53
BD16026B
3C37C27A
3D557944
BB06C907
3CB74BFC
BC2B5A8C
3D097B09
3C928177
BCEF38D3
BD008B91
BC7C3D68
BC86099A
BC7CA644
BC80E5D9
BC63B399
BC4ED337
3BE34CAB
BB981E9A
3D14E85A
BAC95D01
BD221478
BD03558A
BD084797
3BBB4917
3C7DF209
BC847B90
BBDBF722
3C82D05F
BC7C2290
BCA99FD7
BC001C50
3AA6CF62
BCAB1DF1
BBD250C5
BD1B30DE
BCA7491A
3CEC64E3
BC677773
3CF9576F
3CAD44A7
BC441C90
3C76AA16
3BF877F6
3D1C95CD
3CCE58BE
3B3D2D9D
BD056B95
3C1C06E7
BC944277
3C340C0C
3C9C6E96
3CDA708F
BC2808C8
BCF5CD41
BD345140
3CBC5261
3CC8EB61
3C44A9E9
3A2A04BB
3B4BAF16
3D2376AD
3D0D07F1
3C3E5174
B88DF554
3D157364
BCED1790
3CFE8FBD
3C676493
3CB0F7F0
3D1AE0C1
BD114CFA
BD2D29CF
BCAF1207
BCC38484
3B6DEAAA
BC2D849E
3CD0469F
BC82206C
BC5B1F0B
BAEE8152
3D114120
3CCD0E05
BC9DECE5
BCE1E77C
BCBE2641
3CEBBBA5
3BA4B871
3A2E3FBB
BC11E169
3C6FD6BD
BAFB6F78
BC0A09EF
3D013E59
BC0C1CAE
BB947C23
BA842843
BC1A075D
BCD4F814
3C5B5B70
BC11BCEC
BC46F735
3CF394ED
BC996455
3CCD3A10
3CB0CE9F
3B875574
3BCBECE8
3D1A4053
3BD8E636
3C4F7305
3CE04B9A
3CD75AC5
BCA4DCF9
BC46257E
3C92C103
3C06AAEA
3CEE180C
3B8FE18A
3B2BCEFB
BCBB663D
BBD9D0EC
BC54B4F9
BCB4D742
BCB425D7
3B995856
3C176455
BCE40D5B
3C0C05B2
BB97010E
BC794CF3
BCD04E2C
3B2025A5
BBDC329B
3C9A67F6
BC92637A
BCEC4787
BCB43633
BC964734
BCAA4C04
3D16FA4D
BC81461B
BCE548FA
BC3BB914
3CFA2347
3CC98D47
BC2DBF56
BCD17D6B
3CD55821
3C693A56
BC47F207
3C1A1B4A
BCB24745
BCED65CA
3B14CE03
BD0F1349
3C76E173
BCF5DFB6
BCA1C369
BBF402F2
3AE79F61
3CB72028
3CF5A782
3CE126F7
BC3C0783
3D02F6C0
BCEBA103
BCE2BCC3
BA3F53AC
3B035ABE
BC503827
BCBB026A
BC60CAB1
BB92D1A9
BCE1FDEC
3C4BCC1C
3CD53155
BC8CF795
3C10643C
3CBCEBE4
3BA286A8
3C4B5716
BCC5832C
BCA7BC3C
3CD54110
BCC5BB96
3C641DB7
3C5CC63F
3CEBF9B9
3B65E1C7
3D17DBF5
BCD23EC7
3D068017
3CCF9E03
BB820DF7
3D01ABED
BD4959B0
3A9FC17C
3AA3B1CB
BCFAFA3C
3C43D75B
BC8BAE1F
3D2A0E5C
BC98EE79
BCE74879
3D160BDB
3D0E9BBF
3CB8C650
BC2FF236
BC8CCCCD
BCB1308F
3CF63008
BCE61325
3CB876D4
BD09ECB3
BCFC7DCA
BC9C01F4
3C32F307
3B4C7BEF
3CE5CD4F
BC8A65EA
BCF1D997
BBBE8BEC
3B04FE01
3D08E59D
BCD9E519
3C3E0305
BC6FB81F
3CC7F3EA
B9031049
3C21FD20
3BA31C24
3C8472C1
BC815494
3CBD33D3
3C137DA1
BC702B0B
3C8273AD
3D08A7F5
BC469729
BC3C12D6
BC4979C7
BCA5E3BF
3C23F177
BCB34B1C
3CB82393
3CCB3EF8
3B5ADC5A
BCFBF9E1
3CD9B4A7
BC9DC685
BCA1EFDF
3C6068F6
BC1B85F8
3D02B0CF
3CE8E6A9
BCDEE675
BB9B7B31
3D0E2AD1
BC734DD5
BC5916F3
BCF503B8
3AFFD538
3C37D0BC
3CEDF4D0
3C7A0D0C
3C129A36
3C528218
3CE5D2C3
3845EE4E
3A9D1E5E
BC72B163
BCAFA24F
BD18145E
BC63BC68
3CF940C9
BC2821F3
3D0BC54B
3D0F08E7
BCBF0C1A
BC31C35C
BC6449C1
BC8E4FEF
BC902BFD
3D8639BB
3CB0394E
BC4BC7EA
3D0F8F6F
3D580793
3CD4F484
BD0E53D0
3D8E7C65
BD086925
BC91C814
BC1BA0D0
BD1FB44B
3CD19B9E
BD349F0E
3D1CCE1C
BD0803C0
3C7144E7
3D4DF952
BCA28B7B
BC2C7BF4
BCB23B1B
3C1E5BAB
BD0C8ABD
BB587E5C
3BFC870F
BCAB232F
BCEE6AE2
BB807C11
BD092543
3C4042E6
3BF6BEE4
3BBA8867
3BDABF54
BB472DFC
BC6865B0
B771B750
3C12486D
BCA661C9
BC22554A
BBB1A6C1
3CBFC86D
3CB84810
BCC6E4F7
3B2F56C5
BBD78FC9
BB5789EA
3C597AC6
3CF57B0C
3C9046D5
BCDFBF18
3BD01328
3C3A74DB
3C283CCB
3BD131B6
3C76E829
3C60E6CB
BB294BE9
BC370C06
3C3972E8
3D284AD8
3D0EC4DA
3CFD523B
3C4CCB8B
BB8371FA
BC177FE4
3CAF3867
BD00B2C8
BC0AE76F
3D19DD3C
3B54A70C
3CEAAD1D
3C955857
3A6F2F89
BBDFB5F3
BCDE8958
BCA3DD8B
3C7F9867
3C176705
BC1201D5
BC7B6BB1
BB59AFB4
3D4B777D
BCD36BB8
BBDFFD56
3BBC701E
3CAE3D60
3C0F091D
BD3B86BF
3A6BD83C
BD0E37EC
BCA52370
BCAC2812
BAF5A000
BB8B683E
BB1B5D69
BCAD1542
3C5AF732
3C4B4A16
BC9FBF83
3CD86BD2
3C060E42
BCC5F17C
3CCB0369
3CD19A27
BD173739
BBEC530F
3D0325EF
3C819A6A
3C0D3817
BC640F09
3D0290D4
BCC4383E
BD1D41FA
3C4E6CE0
BC0BB80F
BCCFF759
BCEC4D9C
3C4F9D62
3C4F6C4F
BC2805D9
3BFDC66A
3AAB5A0B
BC92D69C
3AC79D63
BC4AA3FE
BC0A8575
3CD285DF
BC26B4A0
3D5472B3
3CCBDFD2
3B0FCCBC
B92A086B
3D00688B
BC91F23B
BD08731C
BC4E9666
BC836255
BCCCAF05
3C81C491
3D0AF3AF
BB7E71E0
3C401168
3CE850ED
3CB7952D
3C9F3CDC
BCDFC207
BC8C5F54
3C91B6AC
3CE25ED0
3C833F50
BB9ADCD0
BCA3A5C2
3CD4E7EF
BCE9944E
BC845423
BC3944C5
BCD7E1D4
BBD2C926
BCEF5E5D
3BA56D8D
3D1BE081
BCD365A3
3CF328ED
BCA2D2C9
3C9DF14D
BC36679B
BD045458
3CF5540A
3A459167
3CD9E691
BC380FA6
3CCACDEF
3C54A000
BAB26EFE
BC8C4080
3C9BC3E1
BCFE8E10
3C665CC1
BCC5B516
3C4D7D61
3CBC39A2
BCB3E9A7
B94F2CAC
3CAD0983
BCA67D78
3B81A3DA
BCAB6432
BBE804E2
BCFBFD72
3D107182
3CB90BBA
3C502979
3CEDCC8C
BC86D10A
3B3D3022
BCA2778F
BC1F4779
39C3544A
BC367E41
3C53DA73
3CD4DF8B
BA76C23F
BC08963C
BC49D31D
BC717D86
BCFFBDBB
B96D0345
3B16C884
BCC8AA5E
3B601ADD
3CA87FE6
3C230CF5
3BEB1E5C
BC69D876
BCC0947A
BB9EA507
BCCAB607
3C60758C
3CC1995D
3C94A757
3C93EE95
3BBBB58E
BB81622B
BCA23D0C
BD34A24E
BB1C73EA
3B7548ED
3CE36596
3CC18AAF
BB1A3E85
3C580EB5
3CD7B5FF
3BF1C931
BCD41A9F
3B00F0D6
BD11C037
BB4197E5
3C710378
BC23C0FA
3C3A9238
3C9D9FEE
BBF4F68D
3CF265E4
BBC0A19B
BCA45F5B
BCA79570
BCEA2CFA
3CB9632E
3C98A90F
BC0EE29C
BCC120C7
3CB853CF
3C0A9E14
BC34D346
3C586B67
BC27B0B4
3D001B79
3CC269D2
BC0C206A
BBAE48BE
3C98046E
3AEDD22B
3A9D5BC6
BCCC8D77
3CCB8D32
BC157DC1
BCA4F36A
3B7D3017
3D594912
BC271151
BC8ADC67
3D30B326
3C7A9F03
BC40053E
BBB8CA61
BCEC1A70
BB078545
BCF25A5B
BD304DDB
3C50DE3F
3CA5B9CE
3CBF147D
3B9E1859
BCD36CC4
BCA07373
BC67DFE3
BC8645CA
3CA6725B
3D17C60A
BC4FA849
3BDAAEA2
3C9E1529
3ADBF55F
3A959451
3C9483E6
BC9BA4D7
3D125C74
3CCA4243
3C07850F
3C9C97B1
3C47CCB3
BB985B00
BC8C249C
BB959B48
3CA9CAD5
BAC1B91D
BC492578
3CE8FB01
3BAB5FEB
BC2EA23F
BC3A0E19
BD216CCD
3CA0ED81
BC78D8C4
BC978309
3C91B56A
BC4FF06E
3CED7A8D
BCA79E09
BB87DF32
BCF47014
3D4F87E3
3CF74F8D
3D0D5E07
BC600376
BAA985F6
BB6F2C48
BCF96511
3C318B93
3CC4DAC6
BC9BE8FF
3B858E1F
BC964BD2
BCB38CF5
BCE7843E
BB9466BF
3CBA81A6
3C190BEB
3D07CE10
3CDD7CB3
3CEC48C9
3D036926
BD0B3EDE
BC92736A
3C103557
3CD9889D
BCDFCA6B
BD02480F
BD2FE0B3
3C87E465
3D29A276
3D057FD1
BD35AD2B
3D0ACD4E
3D08DD1E
3C483F9F
BCB43485
3D51BD62
BCFA8AAB
BCC176C3
BD245798
BD24C9AE
3CD573D0
BCD71DF4
3CE2721B
BC84F7EC
3B48D1EB
3D2F39C4
BC586CA9
BCBC200C
BCF231E1
BBD0D5C6
3BE7B07E
3C280F13
B901CBBF
BBAB91FF
BC9B9842
3CA23EB9
BCD3B6CC
BCCF6670
3A38947E
BCFE32A0
BD035E3E
BC6A24CC
BCF5BC0F
BC927DE7
BC1DFE83
3C2BFCDE
BB6509DA
BCDF2CEC
BD05029E
BC9B8455
BC49C75F
BD0911A7
3D028CD8
3CDC7DAF
BB62E365
3B88E455
BCBA3F2C
BCC1FF49
BC2D7E53
BCBF4A63
BB201DC2
BD3A5DCA
3BD68F2E
3CA8EC53
3CB9ED62
BB2567D9
BC264C9B
BC7191A8
3CDB6EBC
3CD31A8F
3CED22E3
3CC800B5
BC6710B0
3889AA84
BCE80461
BD0D8FF1
BB810914
3B155FF9
3C346AD6
BC9DB6CA
3CBAD6CB
3CF59253
BD492EB3
BBE3C2F3
BBBD7E91
3D0B891B
3CA71294
BC0CD881
BCDA2220
3D105964
BCDB9F2D
BCE0A923
3C6ECD3D
3CF7A4E8
3C98BAAC
BBD65F1D
3BE3EC23
3C1B043D
BCC6A4CA
3BFD2D93
3BA987E4
3CB0A11D
BC8BC59C
BC719C25
BCAA0699
3C60D7B1
BC860CF5
3C5D066B
BB72D29B
BC1B39C2
BCC6AAAA
3CD1DA1D
3BCFF6CE
3CF3AFFB
BCC0287A
3C98215F
BCC302B4
3BCC1A8B
3C0B7468
BCCEC850
BBA3AA3F
BCEA436B
BB2DBF15
3CB2DD02
BA983972
3CB56324
3CD5867A
3CA0564C
3BD81759
BD21CC89
3C40BA70
3CFAA949
BCF120D5
BC823605
BCC329B6
BCA4A2AC
3D2C2898
3C2BE271
3CDDAA6B
BBA7FECD
3CEA440C
3CAF5A61
BCA58454
BC9C6195
BC8E0115
BBA9266A
B9E90B1C
3C19023A
BC897884
3C7E5570
3B263284
3CA9EF88
BCA2E2EE
BC34916D
3BF60AF4
3C65A21B
3D0CCFF2
BC8213D6
BC2983F2
BB381A8E
BBA017B8
BC1DC065
BCB09A9D
BC9B8B77
3B57E22A
3CFDF3B6
BC8AC988
BB66263A
BC9F8353
BB59AF08
BC8637F3
3C6D9BE5
3C412996
3CE42B8E
BCBAC5CF
3C80291B
BC5DFAF2
3A46BEB8
BC6CB5A0
3CF72D5E
BBB7044E
3CD923BD
BCE373A3
BCC34A6D
BC3A2DF9
BCE4935D
3C67BF2C
3D0EB71D
3CA05F1B
3CE11C0F
BCBA08DB
3CCD62F5
BC8A416D
BCAC496A
3D06BDA4
3CBBFFC0
3CF8701E
BC2BB9C2
3AF91E39
3C097EC4
BCE28DFF
3CB3A224
BCC8CB4B
BC8836D0
BC97B0C1
3C9A56F9
3C57D5AA
3BC8FFE4
BC93AAA2
BCF88949
3BA0A628
BB1638E7
BB02301B
3B23B3A4
BC2DFFEE
3CD515A6
BCBCCAC1
3B375FFE
3C95802F
BCBA7180
BC7CA502
3C4A3CD0
3BE72528
BC96F072
BCA7A602
3BA26647
3D08BE80
3CE9E3FF
3AC6EB8C
BC5E75D7
BD29275C
380D3B92
BCD3C2F6
BC3944C5
3CD7D2F0
3C8F8E7E
3CE56946
3C9ECD4B
BCB2C1BE
3C77432D
3B7F8938
3BC38627
3C4C7D87
3CAB01A1
BAA724F2
3B7FB456
BAE6D70F
3C67F116
3A97DD2C
BCC9C978
3CF50566
3B85A648
BCACA545
BCB6625D
BCFCFD82
3CD2B686
BCD62BF1
BCE12514
3CC0FE62
3CE253B2
3CC78F76
3D0FB580
3BD14E11
3C835AFE
3D19ED11
BC897E99
3C4F87FE
3BF331BB
BCA91FEA
BC50D3C3
3B086819
BC79A5DE
BBEA60C7
3C89E526
BD051C9F
BCD73AAF
3BF1748C
BCB1A2A5
3C073549
3CACF52C
3CB04542
3CB7FCC7
3C0F8F09
3CD47C23
BC228B3B
BC7A5531
3C126B7D
3CCFDA9E
3CDD066B
BCEAAB04
3C3FDAE1
BCBC09D1
BB0EA245
3C546DAB
39F1A0ED
B6E17B96
3CE86C30
3B969C24
BC9CA156
BCEB4BDE
3C890273
BBE245F0
BA824F3F
BBF2D7E4
BB7E7693
3B9FA3CA
BC88F7F6
3D53CAEE
3CE8E34E
BC626479
BC4AEFE8
BD58E219
3A954928
3CAF8DC2
3C0728FF
BC9B4967
3CE59AFA
BD028658
BC81527B
BCF9BE9D
3D36114F
3D40C811
3B9956E9
BC08334B
3C31A310
3CAF1928
BD2893D3
3CBB3601
BC933714
BAB4A9C0
BCDD7CB3
BB6457D9
3CFD7328
BC8D9183
3C275BFA
BCE14347
BCA224B8
3CB3AABD
3B2C6579
BBA7E6FA
BC11A889
BC1D1B2E
3BCC7F0A
3C5FBBBD
BCD9E915
3C8E2202
3CE8F8E8
BC50F261
3BD2D133
BC826641
3C10C098
BBF70D53
BC9BF84E
BB888017
BC953C07
BD1D1D98
BCC946D1
BCB42FB2
3BA65A88
BBA7A1C5
BD103303
3C8F80DC
3CEBD9A3
BCE0BFC9
BBE5D3EF
3C1D3B3A
BD195F9D
BC95CCBB
BC5C01F4
BCC3B597
3A7454D1
3C877179
3CE1D35A
B9F21B99
3CE95747
3CA59D7E
3C0F13CF
BC381D7E
3C2E586D
39D8E8D4
B9AC6CB9
3BFAC771
BC2A2A76
3CF65882
3C910F1C
BCBA6557
BC24D9D4
3CB3A4A8
BC3D548A
BC60729C
3CE965F5
3B7108C1
BCED6020
BB362CF8
3C4309D5
BD032D7C
3C78CF1F
3CC528C9
3BE5DE00
3CBC3BBB
3CD0E23B
BCC0AF52
BC7410DE
3C9B03FD
BC43E16C
BC012CA6
3CA1A501
3CCA16A5
3BFEEF9F
BBA854F3
3C2DB1EA
BCC635DA
3C322C38
BCD8438E
3BB8DD57
BA92E2C6
BC131073
BBC1131B
BCCE61C3
3C219195
BCF68314
BC9F9DF5
BCDD6353
BB5EB354
BBCAEB61
3CBF851B
BB3A183F
3CF7A0EC
BCD81D2D
BD57A370
3C1C1D2D
BC9EC3DB
BD022D6C
BC484F90
BC78FFC6
3D31328D
3B2F65B4
3B5499A0
3CE05D6E
3C82404C
3C8E0978
BCDBBF0E
BCA855F5
BC205E19
3C828368
BD401C35
BC50408A
3CCC3F3E
3CB2FE90
BBF1513C
BD05D6DA
3C1E5ED0
BD028D94
3C992DCE
BD04A292
3A4BEEBD
3CDEB3EA
BD137F89
BD0B8C25
BC913979
BBF18365
3C8ABD5E
BC60C6EA
3C93CE7E
3CEE27C6
BCAF2EC2
3C931AFA
3C1956C9
3BE281EB
3C294574
3CD076DB
3C856997
BBC4D4B1
3D03E8DE
BAD2CE9A
3B277479
3C2CD5B7
3CD8676A
BBC741C8
3CF6A726
3CFD6E8B
3C75EE9A
BC4FCAAE
3D05B424
BBE24EAA
3B252E78
BCE0DDFC
BCD77136
3CE913C0
BD01E090
BC44F63F
BCF2CEBF
3CB82D6E
3C64B5F8
3C8F4BCD
3D03794C
3BC7FDC6
BC04B2E2
3C8EC52A
BA418E5E
BC110454
3C3A1B85
3D09E8D2
3C71BB9A
BCAD27B6
3C60ED15
BCAFAC60
3D057789
3C371EE6
3B252035
BC062365
BC2DFA7A
3CD731AB
3CC380BE
3CF81FCC
BCD6C681
BC1D2C76
BD019008
BBFF64FB
3C0BF2A7
3C324C18
3CFFE70B
BC1E0E28
BC4C68FA
3BC2A52C
BB29E9C9
3BED2F18
3CC576CD
BBA50C94
3CA04296
3B49A5FC
3C8B3919
3C41AB31
3C30C240
3CBDC238
3A612B7F
BD289D78
3D04CB77
3D01779A
3C294219
BD0141EA
3948DC27
3C654427
BC1EA41A
3C2C1100
3CDBE066
3BB11E86
BC220FC0
3CB1A021
BC92A701
BBEE1674
BCB397DD
3C143125
BC8014F9
3CCB0D7A
BC6C7FF0
BC3C5A23
BC856B7A
BC0EC45E
BC598684
BA5B4E34
3CC88F50
BD0880BD
39E3D42E
3CB7080A
BC7F8876
BB9BCCFB
BC26B64D
3C79A141
3C09CD49
BCFBEA5C
BCC4E7FC
BC673DFD
BCAE4EFE
BC040AA7
BC2F569A
3CD66715
3CFC4850
3C266631
3BF79A96
3ADA7480
BCA39530
3B76E6D2
3C26F1DC
BD06277C
BCAD04E6
3C0CE12F
3C0E1354
3C4123B7
BC4C729F
3CB329C3
BCBCCA8C
3B238602
3B11DF10
BC9E0DD2
3C56A239
BC385ABA
3CDC3E24
3C7C2BCB
3CCF916D
3C63D669
BBCAE541
3D0FA1FF
3C4FC753
BB437B95
BD053FA5
BCC5DFA8
BCDD6ADF
BCF65F38
BC7214F0
BB5ACA3B
BB87FB62
BA48AF53
3CEC665B
3B2B6FDB
BBD5757D
3CF21B05
3C8862A5
BC6673D2
3CED329E
3AC130E2
3B996B21
3CCDFB00
3B4C6015
BCFD9521
BCFEA3DF
3B6B3C4F
3BA869D7
3A4A299E
BC8EFAA4
BB87A439
398BB96D
3BBAAA60
BC5B2EFB
3BC44E23
BC95DB9F
3BA63330
BC63FC29
3B363B66
BBBDEB33
BC8AB48F
BC9F1788
BC9EA613
BCAFC9BC
3C81CD2A
3C3B3B3F
BB8DB144
3CDEBD90
3CA93A21
3C8CDDC9
3CBEECA5
BC64E4F2
3CFF3351
3D079951
3CCE65F4
3C6EAE34
BC39EA07
3C992F7C
BC2776D2
BB1B1CD1
BCE48E55
BD2CAB3F
3B847E29
BC3CC2FF
BD251655
BBD1D2B1
3C2E4085
BCC5AE60
BD004641
BC1105D7
BBBCD924
3BA8B91C
3CF51231
3CF5E991
3CE7AC4C
3CD8F133
BD1B13ED
3C591BFB
3CEE5F59
3B5CC9F0
3CBFE5FF
BC452D9C
BB7494BD
BB766D5A
3C9C0300
BC3C81FC
3C4EAAF3
3C8A3579
3CC18896
3A0BE97A
BCF50C51
3D016921
BB8309E0
BCA93808
BB56F169
BCD9F001
3C23734D
BC9AE163
3C60E446
3C361E35
BCD84D34
BC3448DD
3D042742
3C0B694A
3BE6B33D
BC6FA971
BD0E5599
3C619A4F
3CF58553
BC176B2C
BC8050BE
BCA8A3C3
3D504593
BACF1450
3BCFF7A5
3C9EB456
BB8AB0DE
BD1140D0
BCE4BCE3
3AB40EBB
BBC15535
BB29A352
3AAEA94B
BCAE08F2
3B3695D4
3B5509DD
BC2CD7CF
3D482B7D
BB9FB8AD
BD28D12A
3CC760E8
BAC5ECDF
3C5F86E4
BC829C92
BC25C15B
BCE5F41B
3D205A63
BCD21EB1
BCFF4052
3D1CA8C8
BBDA10D8
3C347E8D
BC174DE5
BCFF56C3
BC952D8F
BD38DFCB
BCE54824
3CE7F512
BB5EA841
3CCC9031
3D026916
BBBB1B8A
3A4B7B2D
BCAB3D66
BB822C55
3B8A1F28
BBC3DF28
BD21594C
3AE59195
BAB55334
BD0C42CF
3CEA6E69
3CF50A03
3CEC8DFE
3CF3F6A8
3CCB7762
3C7B74EB
3BBD9A6A
BB3CA50C
3D074DED
BC7CA502
BACA402B
BCA7DAA5
3C7084CD
BC2A0085
BBAFA88F
3D10272A
BB854D06
3CBAD370
BD3C87A5
3D08A860
3CCEEF1C
3B2DA413
3BF92D13
BCE09FB3
3CEC904C
3CD43541
3A870D25
3CB03F63
3C5955DD
BCC22F85
3CDC7A8A
3CF1A991
BC5F33D8
3C395D84
BD4DC1BF
BCDF64EA
3C9E9440
3C4FAC10
3B9DE111
BC4A812E
3CA6281D
BC900E35
3C68F8E8
3BDEAFE4
3C5A7603
BCD2F8CB
3BEE1D6A
BC0ED7A9
3BA3FE77
3CFDCD8B
3C0F2933
3C9C3DEE
3A6D0DF1
3B270FFA
3BF6C127
BBE44FA0
B90111B8
BC6386B8
3BFD9A1F
BC2FA432
3CB1ED4D
3ACC5E12
3CE357BE
3C9E056F
3C128985
3C94BBAF
39861493
BBC8280D
3D0474BF
3BC9A2E1
BC463B4E
3C688C46
3C3ACC85
BCF3DCA6
BCFA9C7E
BBAA54BD
3CEFE890
BC1AA00A
3C95B06B
3B5B8EDC
3CC72ACC
BC266F00
3CF9108D
3CEDFEAB
BC195F0C
3D10C83A
3C6672FC
BCB8F9B1
3C88D958
BC8F2643
BCAF5A2B
3CA2C775
BC184FD8
BCDBBA3B
BC7A5820
BCC7CA9A
BBACD2B1
3C2DB32C
3CA7B94D
BCADBE14
3C81545E
BC99902A
3C2D0735
3BED8E63
BBC5BEA6
3D039658
3CC30828
BBCB48D4
3B6A8CFC
BC735FDF
BB758F64
BD0926BA
3D042818
BC1CC1F8
3CABD6B3
BC1B1E8A
BC6E1A24
3C64BB00
3BB08254
BC90DA79
3CF1E7DA
3CE635F5
3CFDB6AF
BCED695A
BC573F17
3C9667EC
3D1201F6
3CF80885
BB2FEEF1
BCA1C00E
3CA25C4B
BC3A3F2C
3C673380
3BEF9E33
3D0C31ED
3CCA6549
3CFC214E
BCE9E5AD
BCDB6F92
BCA50AB1
BCF7C8FA
3C84043C
3B31EFFD
3C843AC2
BCC347B3
BD021767
3C4FD7AF
3CB4AC45
3CA70C13
BC81908E
BCAA1E4C
3CF6E173
BC690DE1
BB2F0942
3C417805
3C7F7B76
3CB29B5E
BACD4192
BBB62C8D
3C410808
BC86CD7A
3C361ADA
BC63652A
BC9AFDB2
BC85BB61
BC776D8A
3B3C0428
3BD0AF05
3ADAF2AA
BD055A12
3CAE1F98
3BC45D52
3C087F40
BC8A4243
3CC4CD8F
BB6BA682
3CE17E35
BCF8A23E
3D0C5C4A
3CF1F0DE
BCFEC4CC
384D3F05
BC5245B3
BB4059A2
BC9D9176
3CC5F832
3BA49891
3B8CDBF1
3BA669B7
BC3D2667
3CBF1412
3CBA28BB
BCD1FA9F
3CCF77D8
BD014EB5
BC6A30F6
BD113FA9
BC8E6E58
3D056D5D
3C2AD23C
BC01B2B3
3C6562C6
3C51D68C
BC1053C0
BCBA3B65
3AADD8EC
3CB173AB
3C5C2027
3D0FE296
3CD512B7
BB893D81
BB4E7315
3C9146E5
BC8F0018
3C6298E7
3CA8576D
3C959D56
39AA7183
3CB48253
BBDCE5F5
3C3C4164
BD0BEDFA
BC6E3136
BCCDE4FB
BB8A396A
3CD955A7
3C659876
BCD3B371
BC49EB71
BD05218D
BCBE78AC
3CA18EC6
3C801747
BCA25D22
3CA4F4AC
BCDB60AF
BC9A2B90
3C8D65AF
3C49EDF5
BC943C98
3C9C182F
BBD66F4D
3CED3522
3C146B52
BB2CF190
3C51F2A6
3C5F4D6D
BCADA123
3CF621FB
BB941637
BCEB554E
38C2630C
3C5A0B7A
3BF31BD6
BBD51ABA
3C440A1B
BC013387
3C1ECD96
3BE07724
3D478DFE
3CE10350
BC2E65D9
BB881248
3CEDD01D
3CD70A08
BC883269
3BA9EE51
3D05A93D
3CCCD093
3C9C6F37
BCC1E90E
3C668499
3D093096
3CB18F5A
3B171FED
3C3693A5
BC339706
3BBCD472
3BE0B8A7
BD00778A
3CCC9173
BCFC5DB4
BD0841D3
3B995C9D
BCF8A6A5
BB846413
BC7E7841
3CD1B6AC
BBFD8049
BD0936C6
3CB489E0
BC8B252D
BC69BB85
3C8A64A8
3C035021
BB2961B9
3C848FB2
B9FFF4F6
BCE19E4B
BCB15B57
BD3E60A9
3BA6E1C1
3B508640
3C29F821
3D040DC7
BB857C2B
BA19E97E
3C80CE5C
BB25901D
BCA01076
3CCC0C48
BA33C641
3BAAB0EE
3BA97AE3
BBABCCF8
BA42F272
3CD3836B
3C0EC83A
BA62B2CE
BCFB451B
3CB9AF19
BA975242
BC5EFCE6
BBE82604
BC90CB95
3D3558F8
BCA5DB92
BB31D5D1
3D266179
BCE65FB0
3CB32A64
BB30DF5B
3CBC858D
BC91F058
3BEFA04C
BCB556C4
BCC74462
BC03D7E6
3CBB535D
BC723DA0
3A83A816
BC60483F
3C81D1FD
BBE5C039
BCECFE66
BB078067
BCDF5749
BCD3E129
3D0D20B0
BA8676D2
3C22DC03
BC2B7132
BBA62503
BB00CDC6
3B226AA4
3D05BF42
BCE8B271
BC8D31E2
BCFA266C
BCEF5665
3C941ED1
BB172E85
BD12C4AE
3C4DA6E7
BA3B93D1
3D521C7D
BCC4F243
BCBE652B
BCE27002
3D1BC73C
3C8AD256
3C116FBF
BCEA9BEB
BD0F1F58
3C23FB88
3C8760E8
BCFDDDB1
3B7304F0
3D452F9A
3C800F85
3C702C4D
BC31E04D
391E887D
BC36CE5E
BC2931BD
3ACDF368
BD23F771
3D084ABD
BBA74EF9
3C8D324D
3D047977
BBDE9725
BC68F3DF
3C16FFA1
BC4EE251
BB985231
3C885CFC
3C3A52E2
3CC35017
BCA50D35
BC3B0DF3
3BCD11C1
3C1BA090
3C8FC6B2
BC9291D3
BCE20005
BC7E04E9
3D152D74
3CD152A3
BABACD1B
BC7B6277
3CCF2892
3BBDE76C
3BA074AA
3CF3D768
BCB5C514
3C69AABF
3A3B4E6D
3D42947F
BC22737D
BB456981
3D073209
BCB6C3AC
3C6DEFC8
BCAD92AB
BD1B2FEC
BCE54351
3C541B0A
BC072868
3C6E066E
3CA0B044
BD01644E
3C9EAEAC
3CDF039C
3C8A4137
3C8C2EAD
3CC4F63F
3CDC601D
3BDB336D
3C295DC7
BCB30E15
BCA7C1E6
3CEAFC63
BD068EC5
3D1C9115
BD011AE8
3D07DB2B
BBE80710
BC9D4AC9
3C2F09D9
3C23BAC5
BCB3F34D
3C5E6B5B
BD11B11D
BC15962A
3CFDEDD7
3CB6526D
BCC0FB07
3C32C768
3C632138
BAC4C440
3CA16759
3CAE3DCB
BAD16690
BC0794DF
BD179258
BB9D7A39
BCCCDC87
3CA4DB16
BCC98B2F
BBFE377E
3C7F6B1A
3CAB01A1
BD0155D6
BB7308F7
3C0D84F9
BBC902BE
BB81EEEE
3C6FED63
3BD37431
3CC3BC4D
BCCAEAE0
3CB9393C
3C4F1D75
3D096E73
BB89E404
3BA89911
BD02EFD4
3D020F1F
3C06DFD9
3B9EB2B3
3B88DDF5
BBD416EE
3CB24639
BA98EEA4
BCD38731
3B944F83
BCF4FBF6
BCF7612B
3CEFF3E4
BD00A7C6
3D149EA3
3D01DB6D
BCD769A9
BB736796
3C866EAF
BCEC0B56
BCCB6E93
BCCBF170
BD0551E4
3D034CF1
3D0306E6
3CD6348A
3B25DBC7
BCEF108F
BC38E87F
3CB8E849
BD007EC6
BC7FFD10
BD035C91
BC3DB27E
BD6FCBA0
BCA7B40F
BC12E4BF
BB389A91
BA23D9DC
3C91D408
3C8325EF
3D3D793D
3C3250B5
3B71A8A4
BC5256E5
BC9C78DD
3CD39B89
BD29E7E0
BC793866
BBB4C585
BCC6B958
BC2BB44E
3B20254F
3C9FDC3E
3CDBBBB3
3CE227A8
3832EDB8
3C5F1108
3CA83615
3BBE2702
BD02BAE0
BC9493D6
3BB7B650
BCC5A3AE
3C0F3B92
BB306A41
3D0A8C30
BCAD61CD
3C9E5FD2
3CC71822
3CEA6AA2
BABD2D72
BC532B8C
BCBD38DB
BCB3548B
3CFC65AC
BC0F44CC
3CF6D9B1
3C4D69AB
BBCC8640
3CA970DD
3B98FFEC
BBF55ACB
3CEEE0F4
BCF7AB68
BAFFE2FA
3C84D877
3C0791DA
3CBCFDED
BB948ABC
3CCA951A
3C51471A
BC075DF8
BC0C94D9
3C1BC1D2
BD18050F
BCA437EE
BCB4E916
BD018033
3C69CED1
BC8730AC
3C533A3A
3C628530
3C8AFCE9
BBB3A7F8
BCD7635E
3D85CB94
BC8F751E
3D011630
3C6EAE34
BA90EE24
3A2F1F57
BB1E41F5
BCCD8920
BD08A109
3AA1CC43
3C36D14D
BCD6271E
3C8E5131
3CBD90BA
3CC3799D
38C293BE
3C791FA7
BC1CA78B
BCA9C993
BC2A8BC5
3C52FA0D
3C2E83A1
BCE125B5
3A0DB8AA
BBBA0B95
3BE4C8D7
BC02F53D
3C19479A
BCB29AF2
BC847A83
3CE872B0
3C1E7A29
BC52065D
3C74D23A
BCFFC654
BB97807A
BCB0DF66
3CCAD8D7
BC94DE7F
3CC5EF2D
3C1F879A
3C583912
3C00A933
BC174E86
BB91E80A
3CCE6660
3BE5AFC8
BC063C1A
BB75F235
3BCECB80
BCBBFCD1
BC0778FB
39A8EB35
BD4ACCAD
3CFE9ED7
3C054D5C
BC97CE1D
3C591B24
3D01BB71
39588944
3C6240D2
BC803B8F
BCE0D024
BD05F161
BD14195D
3C187C03
BCFA90C0
BC8B89D7
BCF3E616
3C87EEE2
3CABCB96
BBD502A6
3CEF8B3E
3D1D0884
3C196765
BD88A040
3C266FD6
BC9B0B8A
BD80C910
BD024753
3D0D58FF
BB4F16D4
3C73BCFC
3CF7248F
3AA9D57C
3D274894
3CA3FF18
BCFD1103
BCFEFE78
3CE2FD5B
BBC7F3CA
BD7AF59F
BD11B2B0
BBF947D5
3D00B5EE
3C727781
BCA572B6
3D02E7A6
3B4557B8
3D040273
BD351860
3CB1C21A
3AAC37D7
BD697D07
3CA351DF
3C4A3909
BCCB53BB
3D4B138F
3D0441FF
3D081487
3C322A1F
3C7CDAB2
BC9D388B
BB099F26
BC80F3E6
BD10AD62
BD00A8B7
3C46A642
B8E93C19
BCB39F9F
BCEA53FC
BA018446
3D6A1D5B
BB915D20
3B44FDF6
BD56C10D
3D33E143
3CC5ADBF
3BB49AD2
3CD1B428
BBBD10D8
3D11E937
3D3FBB37
BC139C09
39F7424A
3CB1B3A2
BC5A2149
BCEAE6C9
3C2F53AB
BC513C9E
3D3C9405
BD0FEC8D
BB5A13B2
3B5AC487
BC9D1EBF
3C34DC15
BCACB2B1
3C49F2FE
BC7016E9
BCEBF9B9
BC180397
3D122AA5
3CAA9641
BABB956D
3CF81A8E
3CF0A11D
BBAC0684
BC77C096
3B86CD64
BCF0EE80
BBA8AA6E
3C80A110
3C09543D
3BCABA4E
3D0F8C2F
BD16E895
BC24609D
BC5461ED
BBE20229
3CD9483B
BC8EB2B6
3D00E985
3C8927C7
BA9D8D19
3C7FC6F5
3D032336
3CAEA8C0
BC5A3139
39EBC9BD
BD0183DE
3B600610
3CE4034A
BBD5320C
BBF39625
3C760BF6
BD2AA21A
BC59AA96
BC79C0B6
BCA967A3
BC205535
BB9C5662
3C98C08B
3C2B466A
3A5F1571
BD0A5A61
BC68A505
3ADD8501
BD6272A1
3CCD9E84
3BAF773C
BCFD651B
BC97D0A1
3D088E7A
3B39564D
BCDBD4DD
3C7C98D8
3D11E6CD
3CE27CCD
3BCB4BD9
3CEAE11F
BC8D0D64
BCC3C6FF
BCB0A981
3BB500E9
3CEDEDE4
3B165FFE
3B908370
3B4A66EC
BCE6C998
3C79E3F2
B9E15012
3C6C9E23
3BA55F76
BCA751E9
BC0F1923
3C26DC78
BC1B1438
3C53613C
BD0DFF32
3C05725B
BCD22B46
3CB4CF15
3D12F04D
3CB263CB
BCE5E4CC
BC777807
3CDC054F
BCDF5382
3A4A668D
3C3BB5B9
3C9D11BE
BCEB0F78
3CF33D7A
BC6F416C
3CBDB106
3CB04F89
BCC8DC48
3AC2DF0D
BCB12CC9
BCD4321C
3C966BE8
3B5E30F8
BD047149
BC688087
3BF4E301
3BE8FF73
BC854691
BBA1E9CA
3CCC839C
BCC58AB9
BC4F95D5
3C8CC89B
BCF8EACD
BCC5B8A7
BC913A1A
3BE32818
3C977E01
BC98AB27
3D021965
3B1DCAD7
BBFA6059
BC849668
3C2714AC
3CBD24EF
3C0908BD
BC6F97D3
BD02CFBE
3CB03C73
BD3F0C35
BC8B75B5
B9232081
3CB8EF6B
3D5C16ED
BABE8561
BC1EFCB0
3D28C18A
3CC28A89
3C9047AC
BBB40D63
BAF9DD7C
BCD78375
BC98DF2A
3C50D6B2
3C0BCDF4
3BFB3BB6
BCE00BD9
3C4C631B
3CB08F14
3D27136A
BCE709FA
3CE0C7F7
B95AF48B
3C0B4D5B
3C9E8C7D
BCA09105
3B9C5BAB
3CA93FCA
3C148411
BC1660D5
BCB0AC70
3CBE0CAB
BD05FA66
BCAD82BA
3CCD2D0F
BCC2C867
BCC342E0
3CFECAE1
BCBDB354
3CCAA78E
BC689F26
3C1ACEE3
3BC41380
3C30E3CE
BC3B82F8
BCD6EF30
BC336CA9
3CC9F72F
3B2B4A1B
BD0F9BEA
3CEDB9E2
BC907BAE
BC5BE71C
BB9A3205
3C8636E6
3BB5BEE9
3AE0D644
BD05C8CD
3C85549E
BB9BBAB1
BC88A662
3C974A34
BD17FB34
BCC6D3C4
3CD20693
BC45AD1E
BC7CDCCA
3CEF42AE
BC2C3EB8
3C00BB67
3D01F5A4
3C2EEE95
BCFE04E9
3CEA3C14
3C3525E7
BCC00EE4
BCB8C396
BAE4F187
BD7DE0D6
3C4D2186
BCD0CF5B
BC8A785F
3D0574CF
3C7E2966
BCB996FB
BC4F9CF6
BC318CD5
3A02A5A6
3C4C86C1
3CDD0E99
3BA44504
3C5DCB22
BCD638F2
BC46144C
3C6D7B2E
3C82616F
3CAE7E2D
BCE913C0
BC10E967
BC81912F
BC3C423B
BC3C7567
BCE98EA4
BC5C3D83
BCCDCB65
B933669F
3CE08DDF
BBAEA59A
3C9E207C
3CF205A1
3C9176EB
BCB6530E
BD243E03
3CAA692A
BBC94442
3B165C22
BC422D37
BBA440D2
BC01D106
3D0AD2F8
3C1AAAA6
BD309BFA
BCF7A447
BC6BB3AD
BD45DED2
3CE83B88
BD4E3AA6
BB453FBB
3D2E45F9
BC11534F
BCB90A42
3D930312
3CF1348B
3BFD7003
3C3E051E
BD2D9A52
3D7C49FD
BD5B366D
BCE4B91D
3B4C715D
3D23FE77
3D0A5EE4
3CA05CCD
3DAC5111
3D910A8C
BC84B282
BD55208E
BB534460
BCE5753A
BD25B2AD
3CDBC4ED
3C7CDFBA
3CEEE922
3D681487
3C3FF0B1
BC106040
BC1C9C8E
BD0254BF
3BC47667
BC49A997
BD00EBB8
BC0AA18F
BD06450E
BBA2C7EC
3BEBE8B1
BC0CC347
BCF3131D
BC46C39E
3D618698
3CA0DB42
BC6ABEBB
BD8E25AD
BCF7684C
3AD2E718
3C0CC6CD
3ACED439
BB0578FB
BBCD852E
3D3FEE47
BB918249
3CCC620E
3C4EC6A2
BB4E4FAF
3CD3A4F8
BCC28474
3CA63554
BCAC6B99
BBF331A6
BCC47B5A
BCA5C44A
BCEAB7CF
BC250F84
BC8B6376
3BFE02D0
3B89C8D7
3BBB34F5
BD67F0E0
3C0DC7B4
BC29ACA2
3C138A36
3C3A1108
BCB69121
3CE78A53
3D676443
3BF5A0C1
3C9EE02A
3D2D2B97
BD011E43
3CB0A94B
3CF7DFD6
3D1E024A
3D1A63A9
BBFE866E
BCE3CD2F
BAA0135B
BC254244
3BCD50AB
BC60A775
3BF4FD83
BC5F7F57
BBFD5BF6
BCF5C1EE
3C4DD50B
3CD5C77D
3CD77A05
3CE3959C
38EB3771
3CA6D3DF
BC0EFD08
BCDE774F
3D06079C
BCE7BEC1
BC6F1A6A
3C7F21B4
3B87CDAA
3CEAF5E2
BC38B91A
B976397A
BBBAAD65
BC2E7DC2
BC889F0B
3BB0C0BD
3CF9EA07
BB4CB34C
BC0A030E
BC5E0B4E
3CF33EF2
BD1A4830
3CE02CC6
3B53E59B
BC9A5D44
3CE032A5
BCA4CE16
BD028241
3D045225
BC1AFEA9
BD3260F6
3C042239
BA95518B
3C86A2B1
3A79D157
BA9DAB4C
3D281B3D
3C385257
BAAB4E4D
3C360BC0
BC995FB8
3CF8A131
3AAC4F54
3B92BE49
BC46C7D0
3C808CB8
3CD4AB53
BC7FF4AD
3D29C46F
BC2E3609
BCA3B363
3C6C12E3
BCE92F6F
3CC7CC47
3CE4752A
BD227195
3CF9AA10
3C9FB9A4
3C49E2A2
3C843915
BCCF6A6C
3CDDF797
3CC44285
3C80C87D
BB633BFA
3CE991CA
BA0A5CDD
BB4F378B
3CD0CA88
BD07909D
3C812BE5
3C17E1F4
3C84C5CD
BCABF8AC
3BC6A04D
3CA3E9B4
3C0A0FCE
BC85BC6D
BC5832C7
BC04A8C7
BBA31BA3
3CF17375
3CB31E3A
BB7F7DFA
3C5BB9D0
3D0491B0
BCCC3314
3CD16624
BCB52942
3C1780BB
3D01B725
3CC1516F
BBB7E839
3C505F94
BCF51BD6
BC90CB29
3CE25A68
BCFAE4D8
BCF736CE
BC66036A
BC94D544
BC8AA433
3C8DA829
3CC58794
BC17DEFA
3A06DA47
3CC4D5BD
3B4DB95C
BCECD119
BCA61141
BCB8E417
3AF31A69
BD037FCC
BBB6CA2C
3C508F65
3C92C351
3C060507
BCD94226
BB08356E
3B51ECF2
3ACC58B4
BD0A16A5
BC728416
BD7A4815
BCE3076C
3C4E4720
3CD222AD
3CB8B447
3C83DD3A
3C243427
3CD77568
3B753247
3C8AA93C
3C5AECB6
3C47DEBC
BB16B188
BD1B25C1
BC71688E
3C7533F4
BB8CB505
3C481909
BBB11DC5
3B784678
3D1564EC
B9F2B2FF
3CD03969
BC5DB552
3CDBBCF5
3CA6A1C0
3D0479FD
BBF1A93B
BBB12ECC
BC28F33E
BC179573
BCC09445
3C9D0204
3D02B750
BCF55C38
392C4588
BC9F54FA
BC8397D0
3BF624CA
3CC9B0EE
3CE1088E
3CBB832E
3C240380
3CE842DF
BC61903E
BC8E2E97
BCB70154
BC54731F
BD0B9438
BC70AB64
BD13C5B0
3D019978
3C4034A3
BC974FA8
3B9E15C0
3B6913AA
3CCBFA75
BB271832
BCD521D0
BC316858
BC68BA69
3B3A4D43
BC60659B
BC29B789
3CEBD78A
BCBE992D
BCF86C22
BC5C1C61
BB85A4B0
BAF4943C
BAFAF702
3D01B9C4
3D4786C2
BC88F1AC
BC1AC385
3D6846C1
BC668A79
BC2FFE60
3CC8F9D9
BD02D5EE
BA7827BC
BC7D01B3
BCE959CB
3CDDF8A4
3CDD7C47
3CB2898A
BC9578D8
3CB143DA
3CD64DB5
BBC2B470
3A6BD2EF
BC62E177
BCC67FAC
BAADC9D2
BD22F61F
3CCC7666
3CAA08B2
3C99BBFE
BCCE3EF3
39DC6C9F
BC86A500
BCE7EFD3
BC46B343
BCD6DFAB
3CA9B71E
3D0BD2ED
3C1A4840
3C454229
BC2D5172
3D03A3F9
3BACE6E9
BC8376AD
BC32AA77
3B5ACC3F
3CD10576
BCAA1801
BA83C0EA
3CB108B7
3CCBEB25
BCB9D005
BCD729E8
BC6247F4
BC67C287
BD5F52E1
BD036DDE
BD55331D
3CE1ACC3
BD1204CA
BD2E6879
3CEE0A6A
3D0F3527
3CDEF5FA
3D24E2D9
3C9ACEB8
BCAD87F9
3CD76AB6
BBD3689D
3D286600
BD4C1517
BD1DD4E2
3B8E0E36
BBA62503
BCCA32F4
3CB00043
3D79AA7B
3D785DC5
BC0383CE
BD486BAA
3D0F02D2
3BB0D8BB
BD08065F
3C0D9057
BCE72431
3C7E2AA8
BAD4DF15
BB834A8D
BB5EAFCE
3B2D5B98
3CE7D0FF
BD080629
BBB982C3
BA462F2C
BCC45F76
BCF3A2FA
BD01E19C
3C789FB9
BCEB5625
3BC316D6
3CA5361A
3CDA70FA
3BB1BC50
3CDC69F9
BD2A1258
BCBA4F87
BB3C7B9C
BD18D244
3CA1E5CE
3BCC84D3
BC27D094
3CD9BBFE
3BA99ECA
BD01540E
BB448A33
BCED87F9
3B313598
BCE48B2F
BC4EBE3F
BCA85737
BCF629F3
BC96FAEE
BCA2CECD
BB36D412
3CCB6B03
3CC4A8A6
BBD108B1
BD1C5EF6
3C6B8EC4
BD160D6E
3C49E089
3CEB40F6
BCFC6F87
BCC1B435
3C5692B4
BC4FACE6
3D70AD97
BD117C0E
3C39B0FC
BC367E41
3C5B07F9
3CB07330
BC3C7A04
3C1BEF7F
BA780944
BBB04CA4
BC641264
3CEB7458
3C1B9694
3B3DD8BE
BBB80FE7
3C2EA7B3
3CC2183E
3D0B3A5B
3BB21E0A
3CF0FBB6
3CBDED00
BCDEA5A8
BCDB3DA9
3CCB6C45
BB110E05
3CC0F528
BC74D08C
3C586F2D
3BEA733B
3CBDD2FF
3CAB2802
3CF34466
3AB290E1
3B3258D8
3CD20C07
BCBDEA7C
BC2CCE95
BBA46E49
BB044199
BB7C8CD9
3C12A72C
BC71517C
3CA989D2
3C58C6D6
BC122963
3C726FF5
3D1D37CF
BBC73675
BC8E379B
3B982E4A
BBD76CA3
BC8E94EE
BCDD4520
3C7589F0
B861E82A
BCCA8AD3
3BFB8837
3B816C67
BCD3433E
3BAD01C1
3CB803E8
BC619ABA
BD0C3CBA
BC931586
BCD6D3EC
3C0EE83B
3CBC4DC4
3C721F01
BC649AB4
3CD9EE1D
3CB4425D
3BC06EB0
BC180F0B
3CFDF564
BCB09BA9
BD108DB7
3C134292
BBFF851B
BCE99377
3CD97E8C
BCCC168F
3CA6E257
BC5F1C5B
BC49950A
3CE8FCAE
3BDF4245
BCAC339A
BC9A32B1
3CDE64A5
BCFC943B
3C1C0ACE
BCE3FFBA
3CA9F6DF
3C72B600
BC86200A
BD01AD64
BBE5A9A8
3BF2A3E1
3CA1D176
BC3FC8D8
BC820A67
BA698C7F
BA3D20A1
3CE6EABB
3CECA728
3CE4C405
BC01EA1B
3B329391
3CC4A912
BCBC239D
BC87D475
BCA54A3C
3CCD99B1
BC946C9F
3CD74C4D
3CB1D713
BC938DB1
BCC9AF0B
BD053869
BD057789
3B1CC573
3C715974
3CA6347D
BC9D30FE
BC276B13
3BAEE688
BC19B0D6
3CCD2440
3CD5FF10
BC139DC2
3D036687
3C06901D
BD0F0EAC
BCB0167E
BCC4C41F
BC424AFE
3C10D24B
3C10CB54
BCC81253
3CC1BE7C
3C9E1C15
BCB66913
3C5931CA
BC2C357E
BC926924
3B252A1C
BC942B9C
3C4F96AC
3CCE40D6
3C62456F
3CFF4ACE
3CE1B08A
BBB3185B
3C9135B2
BCC3F3E0
3CC617DD
BB36134D
3BDD56DE
BCC85066
3BAF2572
3C287EA4
3BBB2CFD
3C25BB10
BCAA59A6
3BF1965B
3CE8A2EC
3C930C17
3CFEE690
3CDA76D9
3C93EFA1
BC4AC952
BC3BE9BB
BC51D4DF
BCD2ECA1
BD096066
BB9ABDB1
BA7DE402
BC8EEAB4
BC0E7457
BCB4C13D
3CA7F72A
3C07C175
BCB4FC61
BB8C7E28
3CC69398
3B252513
BC54D90B
BCFAF244
BB34A690
BC5B7AE5
3C7FECB5
BB201B94
3C8385FC
3C8F8360
3CFA7836
3C3845C2
BA749DF7
3CCBFD64
BA89CF21
BCFFBE92
BCD8CCB5
BC03CB11
BC9AD462
BC87749E
BC017CE2
3BAEAB24
BB5EC4F2
BC4F2F7E
BCCC57C7
BC3F345E
BB8CDB9B
BC98DAC2
3D06AF11
3CCCFAF0
BCC6E5CD
3B780661
3C60058F
BCFDE10C
3CF55C38
BC7362CE
3C54F15E
BBA2CFCE
3CB6A5E4
3CA4D496
BC8027D9
BD29E2F3
3C75EE2E
BBDC3D02
3B34A209
3C9BCEFE
BCC561D4
BB934110
BBCA3C39
BC30E6BD
3A81AD6A
3D0EC270
BCCF4476
3BB5C864
3CA0CBF3
3C52164D
BC9FC3B5
3D04A83B
BC862802
BC550225
BC8086D9
BCD16766
BA5FD5A4
3BC4A7A5
BC91C052
3BF106BE
3D0E534A
BB6B0319
3BC4DFD9
3CD01988
3C3EC6E5
3C413D4D
3C01ABA7
BC07BF1C
BB521E1A
BCF175FA
3C973281
3C8198F2
BC948F6F
BC01B867
BCCC8EB9
3D2BC4E0
3CDE3EE5
B9FABB9D
BCBE190B
BCA62853
BCD1262E
BD2D4C69
BC0F8C70
3B5703B2
BC9F2CEC
3C3F0422
3CA38972
BCF6AA4C
3D2885AB
3CD14DD0
BC83F126
BCFBECAB
3C9CB5AE
3D179EEE
BD5DD243
BC91D367
BD15EEB4
BBCC4BC9
BC1D5419
BCF33FC8
3D176486
3CF3AAF3
BCAAC9A2
BCE34A52
3CB1CB54
BCAE3FE4
BC955D2A
BCF95190
3CA58F3B
3B8D1CF4
BB6A9205
BCAC6D46
3CC658E0
3CE6813E
BC5E6DDF
BD02CDF6
BD07EF32
3C13F759
BCC2A602
BCCD76AB
BCF8B370
BCAB129E
3C40DEED
3D041F64
3C03AED6
BBE14697
3CB2ED5D
BCA0B659
BC1A56F9
BB18D01B
BC32EAA3
BC226464
3C913547
BBB06A81
BBEE5EC3
3C852AE2
3B6A64E3
BC2F28E2
3B827B70
3BD3A94A
3CD91A83
3C05A322
3CFE1AEE
BD1F2B24
BCEC7142
BD1DAABB
BC2A411C
BCFC2EBA
3CF218B7
BCC38E2A
BAEA5447
BD205F1B
BA876CC6
3C1619C8
3D29CD59
BC3C1D52
BC19EACD
3CAADD59
3D068D18
3D3A827D
39C5011E
BCD5FADE
3CC06E85
3D051D0B
3D07D912
BCB38675
BCB3F8F6
3CE1FE22
BCB4CF15
3B96FECA
BAF9EB3E
BCFF473E
BBC164A4
3BDFDF64
BC4962B5
BB070644
BCB466DA
BB718B48
BB539467
3C37A3DB
BC89E3AF
BC3C3BF0
BC384E25
BCAAD08E
BBA22BE4
3B12EA53
3CD0EFDD
BCF48D3B
3B4D621E
3CC4DE21
3CD1BAA8
3C94A970
3D0EF8C1
BD1E32F1
BC9EEE02
3CF7E910
3C1D3F8C
3CE282E2
BBCB9062
BCFC3937
3CA9B24B
3CA1D9DA
BC33212A
3D1BCDBC
3B7D0E08
BD03CDEB
3D13B7BD
3C9FE147
BA135565
BC91AC9B
BC608FF8
3C0E9D52
3BDAB4D7
BC06C8BC
3C47A90C
3C91BE39
3C07879E
3AAB6A27
3AF69040
BCB1B36C
BB024718
3B987024
BAE31B6E
3C06C19B
BC898AC3
3CB6D2C5
BC90CA53
BD01CD45
3CC27ACF
BCB91347
3CF10053
BC7A347A
BCC546FC
3CF85FF9
3D020162
3CC2DC89
BCE6588F
3BB9C6B6
BC4ED261
3C20B1DC
BD048ADF
BCE18F67
BC4CB692
BD052C24
3BD5871B
BCA3439C
BBE2BCB9
BC4D3324
BD090F23
3C11A915
BCEC1A70
3CAFC58B
BCE3D98E
BC2DF358
BD17650C
3B6EDE1A
BCAE90A2
3C8F242B
BCA53AED
BC880E21
BC501C0D
BBD26FA4
BC10CFFC
3C01840F
BBC8808D
3B0D223D
BC88D1CB
BC9AC259
3CD9DF3A
3C390E3F
3CD2CE6F
BB54F565
BBB4C3EC
3B1114E6
3C304253
BCE6C425
3D10EDDF
3B8D0170
3CC0F6D6
3C1850EF
3C0D97C3
3D0F03FA
BC3A5856
3C633BA4
BD01F263
3C9247CB
BCF7BFF5
BA9F3087
3C54ABBE
3CCB3299
3BE554C3
3C3CC36A
BC83D1E7
BC2CF313
3CDC9207
BB15586C
BB9684A7
BCDD8079
3C884AF2
BC71E5F6
BC6C6B63
3C0E1F1D
3BA813DB
3CB02597
3B9EEC7F
3C942551
BC99999A
BCF3E143
3B60A648
3D023E33
3CE4E450
3C3429D3
3D03FF69
BBE1CA1F
BB201CEB
BCC3690B
BC05CA24
3BB9432D
3C9FBF4E
3C044A7D
398953A6
BC918B43
BA911B71
3AC75391
3BF0EEC0
3CB15AEC
3C3EF93A
BCD0C9E7
3CA885C6
BD14D2F6
BA836EB5
3CDDF00B
3CF81916
3CFBEF2F
BCE71807
BC7A4830
3BBEC25E
3C73915D
BC97DD01
3D08745E
BCCFD66D
3D01C05F
BCD2AB33
BC91357D
BC96A055
3CD4240F
BCF4B6F7
3C712F83
BD076E39
3CDD36A7
BCC6C871
3BC7DA8A
3C8E3151
394A611E
3CC08348
BD0DAAAE
BD115FDA
3D017474
3CA76534
3CC53C15
BC24B8B2
3C29F74A
BA4095EE
BB8F96F7
BC38708A
BC282E1C
BCC18902
BC5F295B
BC77CCC0
3CC3CAFB
BAC98F56
BC761AA4
3CAFE85B
3CEDE332
3BF18CE0
BC2EB4B4
3CD1B02C
3BC7751F
BC8D1775
3AFB4530
3CC9ACBD
3D27AC67
BA22B0D6
BC046EAF
3CFA1936
BBC6B962
3CCA42E5
BAAE6D91
BD27E0BA
3CC95472
BCAF3578
3CC73E83
3B019EFC
3C3E07A3
3D23CF63
BC7F795D
BCC0ED9B
3CCE0E81
3C848ADF
BCD1530F
BC7DF996
3C024F3B
BCFE9B46
BD0620E1
3A5A62DA
3CD04E97
BC880700
BCDCF539
BCBD6551
BC88C536
3D026677
BB5BB8F9
BCD1CACE
3CD2FD68
3D050FEF
BBE4B8E7
BCA09E05
BCB201A5
3C973B50
3C92641B
3BEEA19E
3C98FA02
BC5CFB84
BC3AE396
BC84B140
3B340022
3AEE30CB
BC2F9A8D
BCCEBCFC
BC925A76
BBEB276B
BD0A5EAE
3BAACCF3
BCD45CE4
BCD0E37D
3CA82914
3D0E9B6F
BD04302B
3D7BBB62
3C426352
3CDD80AF
BCAD37A6
BD315DA6
3D4C6CDB
BD8399DB
BC94C5F5
BC439AF5
3B3C753C
BC543866
BC38FDE3
3DC16B70
3D731983
3CBBEB33
BD40D420
3D065ADE
BC8CB733
3C14EFD1
BCEDD2D7
3BDB93A5
3CA71441
BC3AD411
BBDBC2F4
3B8363CD
3C3A5714
BB8CFBA6
3CDF7EB6
BC85ACB2
3C1617CF
3CBB7C42
BCEEA7B3
3CA5C1C6
BC3D160B
BCBC309D
BB873970
BC050B42
3CAE22F3
BA99DE8E
3B55720D
3C2D66D6
3BDE826C
3D1E2245
3C5D45C1
3C013143
3B0BA8EB
3CB87054
BB844B3E
BC5A44F0
3CF39417
BD07744E
3CA62091
3C7100F4
3CE7AB40
3C4FA55A
BBF4C463
BCFEFBBE
BC8C0B3C
3CABE561
BD04CE9C
3CD695A3
3B8DB926
BCEA692A
BCD89268
3AD7BAE7
BC566567
3CA857D8
BCE949DB
BCC596AD
3CA9C0F9
3A23B780
3D0E8717
3CA3EB2C
BD234D78
3AFC8B00
BCAD3664
BC960342
3CF6A93F
3B72BF25
BCA3D30E
BC7A2058
BC480CDF
BB9563AA
BD0250C3
3C6BF65E
3C7536E4
BA520173
3D2506EB
3CBC98D8
3CFA9B07
BCD228C2
3C057B3F
3D21F13C
BCBC53A3
BAE59749
3D10AC20
3CB121AB
BC525EDD
BCF2272F
3CE05002
BC44A912
BC25A328
3CC5FDDB
3B992C61
BCD9765E
3CBAAD10
3C81F4CD
BCD79A50
3C8F0BD7
BC8326FC
BD01D522
BC231A36
3CA7A2DC
3C3B7BD7
BCB24456
3CBFD4CC
BCBAFBB4
BBA92BDE
BB742932
BC727CF5
3A189D5F
BD16A0A6
BC40FD20
BBE0ED00
3C502B91
BD0E4A7B
BC432300
3B4587DF
BBA97646
BD25918A
3C306F34
BB23CA1F
3C9A4F37
3CF17954
BC5CA588
3C1E1E59
BCDC6201
BCF6B92F
3C7A8A0A
3B976D6F
39F0D800
3CAFF7E0
BC68FD85
BAFEF6C1
3C1D9A70
3C38B18D
3CE632CF
3CA8AAAF
BCB7B289
3CBDDB63
BD18685C
BCE2DDE6
3C440797
3C1B668E
BB972286
3CCBC424
3CABE6D9
BC23E4E2
BAF012A2
BC158B6D
3BB976DA
BB5634D5
BCD01521
BBAE6D91
3CBA2FA7
3C90D13E
3C313BE2
BBBF486A
BB24EF38
3CAAE51B
BCC57C41
BBFB3D8E
BCF460C5
BC36D86F
3BADF8A1
BCB8E7DE
3CE1AFE9
3C532973
3BE05515
3CAECDDE
BCDC5CF8
B9A9666B
3D0D6FDB
BCA70ECD
BD021782
BCF1872C
BBDCF92A
BC73B42D
BC8B687E
3C2A46FB
3C22DD90
BC4544AE
3CFDC924
BB8D2400
BC9F13C1
BCC8A9F3
3C67BD7E
3C716E6D
BCA806E5
3CC7F05A
3C2CBF10
BAB2E81F
3CFA6A5F
BC9FD7A1
3CBFA319
3C8B2E31
3B6B5727
BBCEE3FE
3C9186A6
BC79C8AE
BCC86884
BAA9A62C
3CBE92E3
BCFD21FF
3C171789
BCFE988C
BCEE7A31
BC6E6893
3BE4DF93
3C038820
BCC9E26C
3CDE6800
3CBE6A69
3CDE350A
3BDAAEB8
3C26A22B
BCF73D4E
3B792ACF
3BDAE33B
BB5ECC7F
3C00C23D
BCBDE431
BCC21F95
3CF9B63A
BB5FE253
3D07B297
3C45CDD5
3CD6AA66
BCC157B9
BCF1D748
3CF4D9FC
3C264E48
BC857E5A
3C8FADF3
3D01FA0B
3C4E7401
3BB37FF5
3C88E3D4
3CC6E1D1
3C851472
BB4C5D10
3CC9E5FD
BCE587E4
BC7183D1
3C8FAA2D
BC974272
BC9AFC70
3C9BF990
3B920F8D
BB74E6C7
BCED736B
3C101E91
BC7DF422
3CDB25F6
BC85886B
BC779C84
BC909C2F
BCA4CC32
BCA044AF
BCF88DB0
BCA2FF3E
3CE53E7E
BCBDA6BF
BCE694BF
BCB0FD2E
BBF77B8D
BC949C04
3CA4D0D0
BBB103C4
BCDAD6B0
BCB7D376
3CB78EAD
3CE12EEF
3BF534A0
3D083A61
BC3A7A4F
3C04167B
3BF6E21F
3C4D071A
BC9F9450
BC46A932
3D013FD1
BCDA9C2E
39A25BE0
3CA03453
BCB602F1
BC9D8B61
BD270BC3
BCD79C9F
3CD19696
3C4C5B8E
BC13DBF5
BCE5DE4B
BD040131
BC942261
BCEF042F
3A0C7CEA
3C3238CD
BC418C92
BC1DCED3
BC7D552B
BCD6D48E
BD1819ED
BBC5D87C
BC8FFB8B
BD0DCA8E
BBDE88B7
BC173048
BAF3653D
BCAB60A1
BC287F7B
BC27A5CC
3CF5F4E4
BCFD6A8F
3CB5B813
BC835F30
BC944425
BCCD8087
3C198A4A
BC9BE1DE
3C10BC05
BC88D5FD
BCEC27DC
3C8B4B22
3CBF0315
3CD1EE3F
3CF81A23
BCB230D5
BD01903E
3BA4314D
3CE8BC82
BD136893
BD4CF130
BC52F3C3
3B11F535
3C10B0BD
BCBA7511
BC276824
3CA67B29
BC946979
3D6AE42A
3CBD0FF6
BBD6B36B
BCDA9974
BD0BF8AC
3C03716F
BD4B2E31
3C24AE35
3C947355
3CA34A52
BB9FC0BB
3CBF3A07
3CCC6ADD
3D5D9847
BC5A71D1
BB46C577
BCB34897
BCD75A5A
BC160957
BC681B72
3BFFB974
3CCAB4FA
3D186F2D
BB8FAA17
3AB8A77C
BC252CE0
BC0BCA59
3C4CD4C5
3C884803
3CFC056A
BC0A7610
BC6A564B
BC16C5D5
BC6889C2
BCCC18DD
3D063828
3B9A3BD6
3D24969D
BD0ACA44
BCAA3B3D
3A7842D8
3D3B9750
BCBAC421
BC61D9A4
BC3CF76D
3C7F5FC7
BB9816CD
3C8F3FA4
3C08D571
3C2B83A7
3CCDFD84
3C7CDDA1
BBA28DF4
BBCF4420
3CE383C8
BD0CBF7C
3CF54CB3
3B5FCC84
3C7099C6
BC116954
BA15213A
BB1F27A3
BCC562E1
BD33BA92
BA96B48D
BC299BDB
3CC05957
3C91796F
BA8CBF16
3CB4ACB0
BC01597C
3CBC33C3
BC6AE8AC
3CB46D5A
BCC7E24D
3B5C5FE8
3CF95190
BB5EC74B
3C63C60E
3CAE92F0
3CD890F0
BCBE3880
3C344582
3BA19CB3
3CEAEA8F
3CE46AE4
BBDF3BBA
3CAF55C4
3BE2ED4B
3BE69FC7
3C3607FA
BCB95663
BC6B24A7
3CF3A2C5
BADDB2F9
3BF6D41D
3CC920A6
BC87753F
3B1688EE
BCBC7241
BC229E7B
3C3FFDB1
3A276966
3B80540E
3D07046C
BC6F445B
3D027F51
3C3D6E20
3C5DBC08
BCF7626D
BC1421C0
3BB531E6
3A900241
BCB8B299
BCBDA837
3CAB0242
BCE79896
3A80DA52
BB06BA19
BB5C0854
BBF86A5F
BCEC05E3
BD3C4729
BCA13280
BCD7E748
BCFD1BB5
3C2BEAD5
BBE71C84
BC429754
BD0A7371
BD0BA3F3
BC4DAEDF
BC796C68
3AFBE137
BCB70A23
BBEC0389
BBC64925
BC882385
BC0FCA4D
BCBC6FF3
BCA502B9
BBED9504
3CFEA2D3
BC8E0180
3A607100
3C5077E8
BC012B23
3C6FC51F
3A9CDC44
3BBADE0D
3CBFC8A3
BB29C6E3
3C7A10D3
BC730BFC
BC8A474C
BBD7FCC1
BCE4D969
3C877250
3C2A058D
3D050939
BC70EA4E
3BF5F189
3CD5D18E
BD0B50E7
3D0687D9
3A7DBA11
3C4959E6
3C4EAA88
BD063F4A
3C248D13
3C0EACEC
BCDB94B1
BCDF0BC9
BBA7777E
BD0224D3
3CCF4CDA
BC112501
BB83AC72
BCAA209B
BD0A3070
3BD96790
3C77DEC9
BC3B8E4C
3CBF385A
BC5F1610
3CB1D92B
BCC12960
BB8A6635
3D0A1EB7
BCB3F672
3B808D03
3CB3AF24
BC4E0B26
3CE3ADF0
BC837DCE
3C4C9D68
3CB20DCF
3C91F886
3CFE6992
BC93A422
BCCD8A98
3CE7F0AA
BC928E42
BC2FE02D
BC883813
BC9E9CA3
3C88FE0B
3CD7BCB5
3CD8EDD8
3A81A416
BCB7FEDF
BCF25C3E
3CEAE76A
BC369EF8
BB139C2A
BCCB6D51
BC6370E9
BD020005
BCF204CA
BCB6D8DA
BC3BB766
3C789B88
3C7E17C8
3B5C51D0
BBF6CC3A
BCF3B09C
3CE22FA0
BC9D1B64
3CE74BD4
3B4876D2
BA657C93
BB38EE1E
BD09AA53
3CA0D0FB
3C202D92
3C0860D7
BB072249
3A2E25A0
3C837535
BCD14A75
3C350B7B
3C6D8D37
BCF523CE
BC9C923D
BB2C42BF
3CCF43D5
3B496940
3C7A39ED
3CFF261B
3B0950CC
3C8E3476
BB363155
BBEC8A6D
BBDB0824
BC8A6DE2
3C97E48E
3CA8CDEA
3C2E374B
3D09429F
3C400325
3CAAFB56
BB83B6D9
3B9F59B8
BCE53D3C
BCDDA166
3C9E042D
3B5E76EE
BC677E94
BCF2F845
3CBB674A
BC77F71D
3D1AD752
BCD332AD
3C9B3073
3CF25DB6
BC60DE67
BC47262F
3C840DE1
3D047DDE
BBE283C3
BC5F0EEF
BCF86AE0
BBF77268
3C68900C
3B353328
3C327964
3C465C70
BCE2694C
BC000549
BC94CB69
3C20A755
3CA2D659
3C9519A2
BCA83B53
BCE77D52
BBC5E3A4
BC1AD2DF
3CDF548F
3CECD43F
BB844E2E
BCDD1336
3AA19AF0
3C49D099
3D07877E
3CC06805
3BAC072F
3D1A5673
3C92AD82
BD059550
3CFA5E35
3D0A09DA
BCC6734C
BCCB6417
3D075BDF
3CCB7F25
BCBB605E
BCD87C2D
3B80EAE2
3BEB0FEE
BC73A6C1
3CF0CF0B
3D02B170
3CC21808
3C3D5AD4
3CD6BA57
3C6F1562
BCF7DC0F
3C5979EF
BCEDC9D2
3B1CF7C8
BCC6F9BA
BBBBD9B5
BC7A0A1D
3C52ED0D
3CD8D4E3
BC3AACA4
BB84E745
3CC2026E
3BB3BF1F
3AA8FC0D
3B97FFE6
BC865EBF
BD12D7DE
BBD333AF
BBEBAC76
BB7572B3
BC8B68B4
BC6BC1F0
BC49D826
BBD9772A
3D1C5642
3C46327F
3C720BB6
BC835B6A
3C435D4D
3D46B9C3
BCAA42FF
3C3987E1
3BF21F6D
3C9D107C
3AA560F8
BCCE5CBA
BCCF1D3F
3CC11C2A
BCCADC9D
BCDE4CF2
3C827ACF
3CF48791
BD133B97
3C514AE1
3CEADB0A
3C75C656
BBC44D4C
BC99E732
3C52601F
BC0C513C
3D0AA037
3C637AFA
BA5BA71F
BCAC28B3
BC35D38C
BCCC99D7
BC372F41
BCA753CC
3D0C1821
BC1CDCBA
3B8441EF
3CCBE511
3CC5A591
3CED6345
BC7C0FB0
3CB4FA13
BC52ADB7
BC382723
3B97427C
3D00C3AA
BC4E3872
3CF6FB75
BCBE2966
3C8188CC
3C271C39
3C510251
3C9892D4
BCE4122E
3D11E266
3C7C31AA
3B82EF08
3C0558DA
BCB6159B
BCCAE3F4
B9F5F0BB
3D02BD64
3B22306C
3A826963
BCC50481
BC88065F
3C761B7B
BCEB7B43
3C27E232
BC5ED64F
3C9078BE
BC70E977
3C95C77D
BBE01412
3CE6644E
3CF4DF70
BC04D877
3CA750A7
BCE346F7
3C91ED33
BBE8A7B4
BCA9C561
BCCD3F84
3C2EA23F
3CE09CC3
3C7774AC
3D06F1F7
3C847941
3D067AA3
3C6AC505
BB7ED8E4
BBBDEB48
BCD71B3A
BC3613B8
3D085F9B
3CF076C0
3CD6F03C
3CC2BB66
3C73C636
3C5A3931
3C3F191B
3C868D83
3C8969D6
BCC78606
3C179553
3AFDED56
3CEDD55B
BC2BCE50
BC88ACAD
3CEF222C
BA6F80BD
3CBCC6FB
3CB9D7FE
3AB11105
BC8C787F
3C1A27F4
3B90D895
BCBB0418
BB494025
3CCBB7C4
3B1B3F61
3C837FE7
BC500EA1
3CABF262
BCFEAC43
3C4F95D5
3CA3EBCD
BD013A93
BD00F9E0
BD1E56CD
BC3BC177
3CA78CA1
3CA027BE
3D05134A
B9B52976
BD06574D
BCC6AD2E
BB0C94CE
BCA154E4
3CFC9A50
BC807901
BA9261ED
BC2DBD3D
3C8FE3D9
3C124FE4
3CE1144D
3CFC6F1C
3C379FA9
BCACC195
3C921F52
BCDBF2A5
3CC2462B
BCEF61ED
3C9FA948
BC602A78
3C41A693
BC2BC2FC
3D01CAF6
3C8831C8
3C2040DD
BCE70FA4
3A49E1F2
BCE7CC62
BD030C8F
3CA488AB
BC8486E3
BC5B8CEF
BD0ADF07
3C4AFC7E
3C6703B0
3A6169A3
3C492AEC
3CF0F0CE
3D12396E
BCD7D285
BBA0807E
3C1950DF
BC732668
3BC8D1C0
BCD215E2
3B28A92C
BC3803E8
BD013EDF
BCCD5FCF
3C24F6C5
3C69E145
3BF225CD
3CB19787
BCA660F3
BC9318E1
3C360C2C
BCA2F314
BADE25BB
3CAB6970
3CD2AF9B
3CFAED3C
3C978309
3CBE0950
3D0FFFD8
BA029E89
3CB22B97
BBDBBCEA
BD05C770
BC9A5764
BC996E9C
3C642E12
BC930D8E
3C28756A
BA98224B
BB7864D6
BC76A8D4
3C1057D1
3CD96349
3CE3A704
3C397FE9
BC2C0D3A
BCE1D9DA
BA9BB4A7
3C7A97E1
BC47679E
3C2AEA24
3C913979
3CF3DE54
BC93BB9F
3CF7BBF9
3CC713BB
BCE7A2DC
3BD5898A
BD04A079
3C5E97D0
BC2691D0
3C255F35
BCE3B1B6
BCE1F51D
BCAE8EF4
3AC2C5E3
BC5D32E1
3C3DBDD1
3CE2AB26
BCC62E83
3BB93617
BCCE6D81
BCD21973
BCE97834
3BC84513
3C4C6675
3A3B93D1
BC6A0705
BBB1BFAB
BC504B72
