BD77D524
BE00A351
BE2A3E3A
BE941462
BF0B9AAE
3EEB020C
BF19CBEF
3E9E4B66
3EAFACC5
BF0193A3
BED4A127
3ECBD70A
3E326890
BE8AC8E7
BF091EA8
3E30AC3B
3E0B26C0
3E9B964A
BF17A798
BE1F1FDE
3E20BDCB
3DD6CF85
BD7250B5
BD90AADE
3E460E52
BCD0360E
3D0F033E
BF2D372A
3EE80000
BEEFC697
BE73D5BB
3D5136BF
3E8A0D99
BF24BF90
3EC73083
BDF3F291
BE8AA023
3EBB7718
3E928D65
BEE9D452
BD715F03
BDE488C6
BDFBD945
BE8C610F
BF021933
BEB3252D
3EB06983
3E201F75
3E123209
BE1E2542
BD4A6E33
BDFF1E8E
BE5E75FF
BDD8D60A
BDF5360D
BECBB731
BE950F84
3D99D734
BE1DA555
BDCCB352
3EEB09EA
BEA56B44
BEB432EC
3E6DD8F9
BDF1D042
BE4DD6E0
3E2FFEF4
3EA1999A
3E7632C2
3ED3F0BB
BEFC6D1E
BEE83E64
BE965C2D
3E617DAF
BE6D9FD3
3E240182
BC117BC9
BD35DDD3
3E6097C8
BF0BBB1F
BD6482CC
BE757B42
BE2A5D29
3EF1FC6E
BD31F688
3E159F6F
3E12788E
3E25757D
3E06A551
3E1BF8FD
3E204C8C
BE00B567
BF1291C9
BF172A5A
3ED07F24
3E9E6773
BF323D81
3E014595
3E5EA8DA
3E52A23C
3DEA515D
3E1AFD97
3D326D70
3DAA4BE9

