3D32F1FB
BB811224
3DF5AEA3
3CE918FE
BD9D51B5
3E0C69B6
BD384D34
BD653006
BE389FC7
3BE6ADDF
3DA82045
3C2EA7B3
3E023D4F
3E02DD7B
BCA81634
BBC2AB61
BDBA7D75
3E055C53
390ACDE0
BE135FC4
3B947583
3D6ECF20
3DC064AA
BBDB553B
BD50763A
3A33FBBD
BD336014
BCDB6658
BC56F397
3C88F06A
3D1218D2
3C25ECFA
3CD9FA47
BCF02E31
BCE721E3
3D69FDB0
3D2B05B8
BC73E5AB
3B388A20
BC37838F
BCD913CD
BC9F9AD0
BC99E229
BCD8FF40
BCF1DF76
B9793C6C
3C6412CF
3CAE0993
3C292741
3BD56D1A
3C22C01E
B9DF1E19
BC132E86
BD3A063C
BD1B3D08
BCA056B8
3CF88186
3D2D96A7
BBD0FA03
BCD6D960
3BBA1ECA
3D35606A
BAF60FBC
3D2B777D
BCA273C8
3C0BECF3
BBB6B55E
BD4066F8
BC633417
3C88B256
BB9757E0
BB0E8391
BC965288
BBFF746A
BCB401C5
3BAF39FF
BC24B190
BABFE80D
BD10092D
3D49CF3C
BCF9954D
3C93FAF4
3CA458A5
3CC4F88D
BCDFC66F
BB228F0C
3CC25D3D
3B657916
BC49FF28
3CAB7D27
BCED59D5
3D20C2B8
BC7BE122
BC28621F
3D4D7808
BCA74B33
BCCF2F7E
BCC9320E
3C38320B
3CEFE825
BB8FBADE
BCAECCD2
BCF0A25F
BCC98A22
3C0F6090
BCC10625
BB62E66A
3D8BA238
3B2984F4
BC6D39BF
BC6DDA64
BC8B75B5
BC842FDB
BCBF37B9
3C80F451
3C3F4A2D
BC57C980
BD356EAD
BCD82B70
3D2B3370
3CE7069F
BCDDF762
3B36F677
BCDFFE38
3D16436E
3B8BC129
3CBC12A0
3D23D26D
3CEDA306
BC0D2400
3BD66450
3CF5E926
BBA98FF1
BC040695
3C9977A0
3C98E8CF
BCFB0377
3D129564
BCA8060E
3D0B2B5D
3B5B14B9
BC27715E
BBE79A83
BCD8973B
BD22E126
BBB7D920
3D164B66
3B5C4896
3B29EFD3
3CB8BA26
3CAFCC41
BD08E63E
BCAFC265
BC1F47C4
3C404FE7
BC945699
3BA5FCEA
BCE2DF93
BCBA59CE
3C9BA3CA
3C246A43
3ABB2357
3D00355F
3CDFF7B7
BCA0EEC3
BCFC2799
BC878D5D
3D125842
3C84F3F0
BCE6B3FF
3C74A127
BAB1DCB1
BC3E33AD
BC13F74E
BC1AF0E7
3D73DB2F
3C525B17
3D6FC7D9
3D2D434A
3C7ED9FB
3D00D3B5
BC6DBA83
BD9A010B
BDA2AAFD
BBCE125D
3D0CDC1C
3BE77FAC
3D4C0958
B967382A
3CBF3097
BCB2B204
BBEE8229
3DA0266E
3AF7DD1C
BC6CDF26
BCD35E82
3D8C1674
3D6A74B3
BB6ABC4C
3CACB7EF
3CE8AD33
3C652737
3CB28559
3BA0B8C8
BD0025F5
3D563AF0
3CB31A3E
BC9523B3
BD42D242
3CF6B859
BCD8B787
3C458EEB
3ABB7130
39B07904
BC75678B
BCBCD1AD
BC3CBDF6
3D2643B1
3C27BFCD
BD2936AB
BC95F27B
3B823422
3C800E78
BCB3EDD9
3D01FD15
BC5F0E18
3C839DE5
3CBE7AC5
3D2A3289
BCB5BCB0
3D5321B0
3D07DAF6
BB4C5A8C
BCB88F28
BD07F14B
3B4466F8
3CEFB169
3D2D2E51
3CCA1CB9
BD0D69E0
3C7F3F7B
3C8A009F
3AE82A4B
3B674DD7
3A3DA4C4
BAC20BFF
3D323A0F
BBAD953A
BC4494F0
3CD83078
BCEA0C0D
3C90A3F2
BC64818A
BC862D0B
BCC1193A
BCEC093E
BC2AD23C
3D10142F
3BE5B20C
B9A7D2D4
BC6887A9
BCDFBE41
BB8DFB2B
3AB84A8A
BB67E6DA
3C476732
BCF61383
BCD193DC
BC4A672C
3CF35F73
3C64AD94
BB94E43E
BCF750CF
3CEC29BF
BCBAB7C2
BCB525B1
BBB5822D
3B897C2B
3CE6C4FB
BCC266E3
BA3776F2
3CC30B83
BD02A023
BB8E63B0
3C4FFC98
3B8F0328
BBB44517
3C725C3E
BCEF27D6
3C957CD4
BD00312E
3C551F16
3C6C9B9F
396280BE
BC9CA7A1
3C920C72
3C7B3022
BCAD6C80
BB4D0F68
3CB0182B
3CBE0F65
BCC69BFB
3D0911A7
3C3890D6
3B8F1A24
3C260C03
3C338FE5
3CF15AEC
BD0DC296
BC52B7C8
3C9102BC
3CB5CD77
3C8738A4
3B44E39F
3CE0337C
3CCD11CC
BA7B3870
BC038815
BBAD9CB1
3A9AFA17
3BD950BF
3CF9742A
BC801E9E
3C1C57FA
3D06C8F7
BCB3C08C
3C94F921
BAC9DC2D
BCE9BD69
BBC401E3
3D02278D
3BFE6DC4
3C1DD899
3BBE910A
BC8A84BE
BCD7AE3D
3A4590BB
BBBBD685
3C5B7648
3C7AA045
BCD5662E
3CA1EA00
BC9B8851
3CEE07B0
BC4A459E
3C340DB9
3C9E5F31
BC3433E4
3D07D1BB
3C8CA270
3CAB3F13
BCAD7D7C
3DC6530E
BC84C2DD
BCF0DC0B
3DF34A45
BB09CF77
3CD6B188
BDB8C147
3C6AA9C2
3D82F1ED
3BCDC0BE
3DDF62B7
3D239C1C
3C160F8C
BCB29655
BD51EEE0
3DCDA33C
3BE26AAE
BD95A8FA
BC0557F9
3C6102E5
3CFF950C
BCC2A272
BC56BDE7
3BDA5B96
3CC80FCF
3800A9C8
3D2C8671
BB904CBF
3CFD5F71
BCD2164D
BD44A34D
BCF9E717
BC661508
3A5303D1
3C295F09
3C970BB5
BC330BC6
BCCC9AAE
BCC6BD1E
BD13A076
BBBF5CA2
3CF9C4E8
BCF17A97
BCDB01AE
3C3A7C68
3C03C3EF
3CB4190C
3CB6735A
BC15ECE7
BCB247E6
BB5BB4F2
3C56E91B
3CCBDF9D
BC6F5233
BCAA832C
BD2814F2
3C58E78D
BCAFB19E
3CAC8133
3C8EEFF2
3CB03735
3C0BEAD0
BC852C5A
BD02F43C
3CB85689
39AC44B9
3CE70634
BB2DF2C2
BCCE0DAA
3C739F34
3C372F41
3C2FB63C
3D2DF9A3
BD26917F
BC8F5BF3
BCD7CCDB
BD2BFEA6
3BB18345
BBBD54E0
3CF22806
3D7E1DF8
BC12D20A
3C3AF6E1
BCCF0190
BCB54E96
BB47622A
BBED03CF
3C165333
3CEE57CC
3D025ED0
BD0ABC51
3C7B9BED
BB915700
BCB10343
BCAFE719
BD3BB1F2
3BD64648
BCAE8BCF
3C801A01
3CDDB552
3A9C9C2D
BD118365
3D08C1C0
3A049C18
BAA0FC39
3D0F53AB
3CCD495F
BC4F497F
BCBB4A23
3CCA91BF
BCE5515E
BCFD9699
3BC2ED10
3D0D8C2A
3D00EFB4
BCFF8F62
BCB05095
3C70A1BE
3CBAD47D
BCA1BC48
3B87BA1E
BCDA5871
3CDE36ED
3C3896B5
BC4EE2BC
B98347DA
BC9101B0
BC52F647
BC9F973F
BCCA222D
BCA56290
BCBBCE78
3AF4689D
3C8C1659
BB383439
3D3A0997
BBCF359D
3C9A93CA
3CBB323B
BA983C21
3C964013
BCE97DDD
BD12AA5C
BCC3CD7F
3C3D0834
3C2EB8E6
BC2A0664
BCAAF394
BC42839E
3C7C045D
3D04331B
3CA0CB52
3CEBE41F
BB5807E9
BCDABD86
BCA80934
BC981ADF
BC4DFFD3
3C6C5CB5
3CFAA40B
3C7C01D9
3BAC6D1B
BC9441D6
3D05B094
3D03CEF7
3A455F68
BB3D7190
BD190D83
3CF33765
3D26975E
BB2F6A10
BCEFC4EA
BC1179E5
3D87DC52
3B8EE911
3D9500D6
3D76418B
3BD72602
3D957109
BD088143
BD96021B
BCAFE60C
BB3101C0
BD0530A7
BCAAF7FB
3D518549
BBFA8CCF
BB90C408
BC918C85
3B987440
3DA21287
3CB97501
BD08621F
BCA36199
3D660E88
3D4D8E28
BB42E33F
BC4AFFD9
3C09C419
3CD0B3E2
BC2C7A47
BC495549
3CDD4AC9
3C97AF13
BCBE3FA1
3C134B21
3BC9AA18
BCDE038C
BC49EB06
BCEFE85B
BBDC510F
3BFFF254
3D062995
3B039CD8
BD1226F9
BC2215B4
3C14C163
BD010E88
BCCBFF47
3D20DFDF
BC1433FF
BCCB8D32
BC100CBD
3D35D371
3C8E3334
3BD93FF8
3CBEC42B
3C8B955F
3D0DD2D7
BB4194B5
BC936AAB
BD3A9486
BC82206C
3C8A2D80
BCADD0BE
3D55818C
3D02348E
BAA32183
BD1494AD
BD1CDD51
3CE80D9B
BCC3EC89
BCA1B84C
3B8D8C05
3C2B7E33
BBA1784B
BCAE6D31
BC0A5706
3C15C168
BA73BD27
3CD1017A
BD0CFC9D
3CA3AC0C
BD046032
3D0653A1
3CACF81B
BC73E6ED
3CB6D00B
3C80C8E8
BAD6C59F
3C932E10
BCBA1A0D
39C58E0C
BC96605F
BC5221A0
3CFC4886
3D09EFD8
BC2C5DC1
3AE88189
BC6CCECB
BCE35895
3C0D8AAD
3C3F719A
BB30EB45
BC7C0EDA
3BC18546
3D4494D5
3C9F5CF2
BA50B701
3C8EF241
BBDC2280
BD04E197
3CBE8F1C
3C5D08F0
3CE7E3DF
399FD6D3
BBAD59AA
3D11503A
3C846FD1
BBFE1D7D
BC81CD2A
BA3FCDAD
BCE8310C
3CEE76D6
BC7B05C5
3CC4336B
3CF02FA8
BCF70733
3CF5A5D4
B9B36638
3B067B5A
3C8DC301
BCE19E15
3C430249
3C35BE28
3CA3D740
3C920840
3BC4D0BF
BCCABCF2
3CFD5AD4
BC6C1F0D
3CA2C98E
3C648D48
3C8386D3
3B0B6A57
3BB816C8
3B8CE79A
BB838D69
BCD8A9E5
BCB74A19
3CA170C9
3C80CB01
3C80C91E
BCFFDC24
3BD7CA2C
3C793D03
BCBA97AC
BCC87443
BBFD36A2
3CB63180
BCACE71F
BC04FAB1
3C164E81
BCD29C1A
3C8E5208
3C852BEF
BBA2D542
3CB08B83
BC21E3A0
3B392FB7
3CB3CD8D
BC86F3A5
3D04E974
BCF28523
BC0A8057
3CBDD65A
BC9DC0A5
BD04A1D6
BBC9AD5E
3D2CAFDC
3D2727DD
BB07E490
BC58F77D
3D8D5977
BD1EB349
3CC394E0
BD3AAA3B
3C5B332C
3D4CBF2B
BA89275C
3D5C862E
3D6BB50A
3C278804
B9352101
BC99ED11
3D332816
3BFEF6C1
BD8A3E1F
3D011813
3C9B0509
3C2B2258
BB974B76
BD44345D
3B1D8D44
BCE307A2
3C00F675
3C23DC13
BCA1EF3E
3D540860
BCCCEF31
BD2276D3
BD19E732
3CA29267
3AEDF4BB
BC3245CD
BC8D027D
BC33892F
BBAB142B
BCE941E3
BCE54427
BC17F077
BCE286DE
BCDBAEE8
3CA36F71
BC216139
3B715598
3C1F15D0
3D0E3C53
3CB262BE
BCD1697F
3CB99C6E
3BC36E7F
BC4188CC
3D0F3DF6
3C30630A
BC85C42F
B9B8781B
BC9059EA
3C9B3794
3CFE51AA
38A03565
3BA6768C
BC31D6A7
BCEEB230
BC465768
3CC5CF4D
3CD31D13
BCD173C6
BCC5A632
3D131099
3C851E83
3D1E384A
3C1A0CE7
BCEE4F69
3CD272C9
BC064F65
BD10EE80
3D1C8034
BD31B387
BCEE2AB6
3C704A80
3D3EB1B7
3C994A1E
BCD6BAC2
3BF7327C
BD04E64E
BC561D43
3AD7B12C
BCC2CF88
3C65668C
B9D4BD87
BB9C5810
3D04A2C7
BC7F0AA2
BD1CEA6C
3C06C6A3
3CEB8BD5
3CD9D346
BC1C9420
3C9DBDB6
BCBB7415
3C365D1F
3C84086E
BCBE8251
3C9161BD
3CA1D903
BC6A1A50
BCCA0613
3CE51DFC
3C4B1B87
3BE5843E
3C120318
3C645F91
3C039ADF
BCF7E183
BCBE9490
BC25431B
3D391E64
BC7E2BEA
3B82ABEC
BC9396B6
BCF15329
BBDCA776
3CBD22A0
BC262457
BC9F8BEC
3C7738B1
3C8C503B
3D20E33A
BCA08D3E
BB86C3E9
3CC24159
3C877971
BCE0098B
BCB22333
3C016794
BCE737E8
3CD66F0D
BCB98237
BC930F72
3C402737
BBF02079
BC8B4E48
3C55B10C
3ACA6F24
BBED0943
B8C2FB93
BC81EF8F
3D21FC74
3CA701CD
BC157817
3C4FA8B5
BB8EE449
BC3FE84D
BCB29DAC
BD402702
BD2374CA
BC09E7B5
3C90B30B
3B9C9C2D
3CC77FF1
3CB57090
BB29FF6D
3CC8FD34
BCD80E14
BB819886
3CB4C6E7
B8925F56
BA230E85
3D4C75FA
3BFA9B52
3B6A2F5E
3CC013EC
3D5905A5
BCE7125E
3CD85A34
3D897C4B
3C800B1D
3D7D0B23
3A3E36DD
BDAE7917
BD079A94
3CD14502
3CBC0C8B
3CD040C0
3D423E84
BC950409
BC6F89FC
3C98D36B
BBB24CC4
3D977BB2
BCFD7AEB
BD6F89FC
3CDDD716
3DAE8E2B
3D8442AD
BCE3DD55
3C6A1ABB
3B2DCEB0
BD0420DC
BBED8696
BB8FDF31
BCC497AA
3D6B13C5
BCD7C9EB
BC7130C5
BD15208E
3C82D100
3C1369D5
BBD8C615
3D170D63
BC8C55E4
3B9EF625
3BB55003
BD138B48
3D347E3C
3C7AB390
BD341F8D
BC697D07
3C990159
3BA02CB1
BC7B11EF
3C5EEA06
BC40E5A3
BCFE0701
3CFC9E81
3CA064C5
3C333F5D
3D5DA32E
3CC9A962
BD0863B2
BD812D9F
3C77D666
3C4C1B62
3D1AA1A2
3D33816C
3C0CCEFB
3C5253F5
BD12EC6C
3CB23572
3D08720F
3CC4167B
BC1F7D33
BC77F646
BC1C5759
3CEA87FE
3C6B91B4
3C874C25
BA339B92
3D19F971
3CC294D0
BB82D116
3C52637A
BD1E1D21
BC817043
3B40B7EC
BB9C72E8
3C276EDA
BC521724
BCFC3A79
BD174546
BA8AE4F6
BC9F2021
3CB8E87F
BA080F3F
3B603E44
BCD71667
BCE068F6
3CF13CB9
BD1B1946
BC643E03
BCCDB9C7
BD0121EE
BC8397D0
BBB8BBB3
3C004951
3CEF3A80
3BE18BF7
3CDD7775
3CF97389
BC01AAE5
3C3E9DCB
BCF5EF70
3CCE0795
3CBE37A9
BC20A4D1
BC4904C1
BCCB46F0
3A159C92
BD027327
3C989E5C
3B0F498A
BD01941F
BC310053
3CF52F57
3C9FF492
B9AB2B23
3CE0C613
3B925CFA
BAAE2D7A
BD174AD5
BCFE443E
3B8736EB
BB88841E
BC60DD90
3B702A1F
BBBC10E8
BCF90EAA
BD08C3BE
BD0F62C4
BC0DC4A4
BD029F17
BC3A9817
3C048B1F
3BCAC9E8
3A88C968
BBE5A8FC
3CFEE441
BC91DCA1
3C78DEA4
BC944B11
3CF984F1
3CEAD4F6
BC21B72A
3CA7FFF9
BCCCF61D
BD0E816D
BC3E850B
BD025E7F
3CA1A5A2
BC0E42F9
3CB88A20
3CF537F0
3C80093A
BC3BB766
3C0568D5
3C1B65A2
BD0B51D8
BC45663C
BC7F9287
BB59AB02
3CB0F16F
3D0D2095
BC3C2FC7
3C83C9B9
BC52AE23
3D008073
BC70083B
3CF36E8D
39DC463C
3D242E12
BC231401
3B8832FF
3B02A389
BC63ACE3
BC4EC6A2
BD2AECA8
3CC4BD6A
3C8837DD
3C73C0C2
39EB5EE7
3D12B17E
3CAD121C
3D044AE8
BC66D58D
3CFA790D
BD068D9E
BC3260A5
BC57E316
3CFD4F81
3C783962
BD15563E
3C30C4C4
3C56BCA5
BBEA2766
3CFC22C6
3C2DDE60
BCBD4281
3CE3E6C5
BBE2A2E2
BA53D6F1
BC62ECCA
3B8B6A16
3C04DCFF
BBBFA9FA
3CF6598E
3D3959D9
BCF3AE4E
BC0191BB
3BCD7EF9
BC3C8ACB
B87BE6E5
3CB116C4
BC63AF67
3D2B691F
3D08E135
3CB294A8
3C8CAE64
3C4CA0C3
BC967664
BAD08A72
3CC5168B
BC93CB8F
3BAAB3F3
BCB83AA4
3CFF00C7
BD1425BC
39E3B0E1
3CB7ADB7
3D2FA44D
3C4E96D1
3D05B608
BCF94EA0
BB371078
BD494B38
3C80598C
BC24E6D5
BB9153BA
3AE17901
BCB45D35
3C6630B7
BBFEF162
BC4801F7
3CC88CCC
3C1FC522
BB530D2E
BB9CF2AA
3D26016C
BCF10485
3C9AABE8
BA1237D9
3BFD4F36
3C7C1235
BCFA662D
BC6EC0A8
BD0E7650
BD07125E
BC044F3A
3CC01FAB
BBD2D3B7
3B8C0608
3C754C48
BC6A0126
3D10D174
BCD12B00
BCD0A138
3D003F20
BA99B6A0
BC99FB1E
BC7D8C88
BCF2DF86
3BAF917E
BAF5E371
3C5DD965
BC49E6D4
3C8AA50A
3CEEB2D1
3CCEE286
BBD67659
BD127BE9
BCE18EC6
BCF1B011
3CF0842C
3BF423BE
BCB4DA9D
3B60A59D
3C86437B
3AB02476
BD0F855E
3C503B16
BD463F9A
3CBC87A5
3CA5B6DE
BCAF4A05
BA5BB5D1
BCDEC9BA
BCA9DF62
BC3ABD00
BCEAE47A
BC1C0193
BC6C7A7D
3CE53EE9
3C7014D0
3C88DBA7
3BE07058
3D12ECF2
BCB86CC3
3B83126F
3AA2242D
3BCC076B
3D131353
BCD24D3F
BCD5D58A
3C9C3307
3C104426
BC8FFE0F
BB86F5BE
3CA05E44
BC4B29CA
3CFD24EF
3CF28B6E
BC280644
3CB8CBF9
BC787AD1
BC2A37E2
BD220EB3
B9B9AFC2
3CC4C455
3CBA5FE3
3C4824C7
BB9F92D8
BC3363DB
BD01F461
3CEEFEBB
3CACAFF7
3CF4479B
BBB3E347
3B55743B
3C1185EF
B8D1C25E
3CBD1676
BCCB0CD9
BB9F3D88
3D5DF81E
3C839A8A
3D0D009A
3D585851
3CBA3A59
3D19BBAE
3CC0E42C
BC96F4D9
BD12C8C5
BCF80489
BCE32D2C
3CB113D4
3D7F26D7
3CF7FE74
BCA1C151
3BC38F0B
3B6F4F84
3D14F957
BA393187
BD14E387
3ABA0118
3DA0692C
3D5F88AC
3C9DFA1C
3CCE1D65
3BD58401
BC27249D
BBD9D29A
BC1D51EB
3BAF59E0
BB5E96CF
BAC44E79
3C2B5D7C
BD3A1D68
BCC784C4
BCB4ED48
3B0FEF21
3C90DA0D
3BD3FC2C
BCF3C199
BD058D58
3C95DF65
3B892314
3D05B68E
BCACAA18
3C2E2EE7
3A394643
3C4ADF21
BCAA256D
3C8AF669
3D0E9C2A
BCF3D981
BB37FD5D
3C861A61
3CF2F0EE
BAD85FFE
B9EB2107
BC8F9102
BC150D83
BCE5CF68
3BD4E433
3D0CD515
3CA2DF93
3D37C096
BD2638E4
BCEE2578
3AF890A0
BC69ED04
3C819F07
BCF88DE6
3C40B63E
3D256382
3D3BCBD9
BD036977
BC3F20A7
3C02F9DA
BC96476A
BD07A0C3
BCDC2133
BC40C191
BCB91AD4
BCDDB4E7
3C4EA1B9
3C8AB7EA
BCBA70DF
BCAFC80F
3BF98B47
3B84B88C
BD1EDD05
38C59EF5
3CA02463
BBBE11B4
3C92ED43
3CB233FA
3D0133F7
BBCD7BC9
BD449CB2
BC3737A5
3D041C3F
BC782AB4
3CDDA3B5
3BD0143F
3C177237
BB88F36F
BCA0AFD9
399C2701
BD04CD09
BCD1A2F5
3A9FEAC1
BC927B62
BCA01FC6
3CE601BD
3CCA9301
BC526817
BBE13F20
B9C57424
BB38F8DA
BCD09112
BCB1E5F6
BBD2E0CE
BD01D126
3B822285
3AB146B4
3CD5A980
BC8E35EE
3C5F9669
3CB85B5B
3B8D3C54
BCADC677
3CB5B87E
BC6931F3
3C69A042
3BF549D9
BB88B154
BB8790C3
BCFABB88
BCD8EC60
BC8E8A3C
3CA9C48A
3C498295
BC944B11
3C913E81
BC243C1F
3B838860
BCB254E7
BB191D48
BD3278C3
3C92CBEA
BCF0CDFE
3C8EB5A5
3CB14588
BCE1C369
BAD66755
BCC60858
3B9D9EF7
3C3D7CCE
BCABE77A
B9C9CB10
BBA3E436
BCF0739B
BD176FBE
3C53B58A
BCEF5126
3CAFBD5D
BC14C93B
3C880588
3C1886EA
BC5ED868
3C49E816
3C270238
3C2575DB
BCAFF922
3AAED845
3C552206
3CEAA9C2
3C83675E
3B891919
3D0A965C
3B731333
BD38D691
3D44D4CC
BD4426F1
BAB430F5
BD3932F2
3D1F5515
3C5A723C
3B539BF4
3D30E8F1
3C9A61AB
BC8AC124
3C9BABF8
BD46E9AF
3C834D27
BC5F1894
BD8C0FCB
BC02F59E
3BAA7864
3B34865A
BD133963
BCB01A0F
3C952BAB
3C6C41DD
3CE39241
BB16F09D
3CC40D0B
3CFC4927
3BA4FE3C
BD0E7A67
BBFEBD1F
3C8FDBAB
3D10BEAF
BAB8C9B6
3BCD62B4
3D0FA58F
BC87B932
BC5F761D
3C75B376
BC1B5465
3B03A3B9
BD2580DE
3C5FF16D
BB9480EB
BAA040FE
BA8E348C
BC6DE5B7
3CB896B5
BD2DA108
3D17B7FD
3C98028B
BC9E0A77
3C2807F1
BCB58F64
3C20C776
BD1E5109
BC82BA5A
3C272FF0
3AF4A152
3B05C628
3B8DED29
BD3CFDED
3B8C3BCE
BD2C55FF
3D11CA48
BCBBC7F7
3C5B89FF
BCC4C0FA
3CDB7A44
BB8AA372
3D1DF747
3B55D25A
BB0FE896
BC81C88D
BD0F21A6
3C009241
3C416CB2
BCC19D8F
BCEFB458
3D0D9DAD
3D4307A2
3D0D1DF6
3C0E604B
BC5A8735
BD43ECBF
B98A057D
3B2012B0
3CCE8E38
BCC8DBDC
BCBF4D53
BC9C8B51
3D0B6234
3CE5A8D1
3BB9094C
3AD362E9
BC6C7A7D
BB7A2926
BD0A39E0
BCA47CB7
3C6596C8
3B8B68D4
BCC45A02
BCF694E8
39FAAB60
BB452462
BC069C1C
BC81A3DA
BC03258F
3CD5B93A
3C85B43F
3B738548
3D19414F
3B8D41B2
BAB83510
BCDD2C61
BB224108
3D31E82A
BC9014B6
B973703E
BB488971
3C309204
BCECA7FF
3C35E23A
BC8A6A87
BA8C46A0
3D3A15DB
BBCF4D70
3CC3EE37
3AA7A825
BCC35413
3D10A809
BC60A054
BC889B0F
BAEA2751
3CA19729
BD1CB55D
3CEB7168
3C864635
3B365AF0
3C6E6EDE
BB8805C8
BD092BDE
3BF83419
3D0B941D
BAC19B40
BC1C8C68
3C9B8598
3D0307BD
3C12F296
3C575551
3C4CDFAD
3CA35499
BC61E2DF
3C50FD49
3C6CADA8
BD12B976
BCDEB3EA
3C3144B1
3AC7DA75
3CA12DE3
BCF127C0
3CCE2F02
3CDF3EF5
BCFDC70B
3C396511
BCB07EB8
3C8175EC
3C5DD31A
BC6BDD9F
BC9709D2
3CDE35E1
3C465B2E
3D2581B5
3CB6C127
BB0CFED7
3D3FD919
BC2A213C
3D0CF37E
3C690D0A
BCDF03D1
BD3B2A0D
3CD0C0AD
BC4882BB
BC97734F
3AC78E4A
3CDAB085
BD014819
BD116873
3C63F8CE
3C24B846
3C9599C5
BBEDC3D3
BCF280BB
3C9E2981
3CBB1B95
BCE33920
3CD9992E
BBD7E1FF
3C853D57
BC230D6B
3D257B34
BC923CE4
3C1B6DFA
3C3350FB
BD107CF0
3B751C4C
BBC88885
BB5EF89E
3CA34AF3
3CDFD94F
3BEEC8E1
BCB69878
BAC92E5D
BB465996
3D14BFE0
BCD6EC76
3CA6FBED
B8A52567
3B37ABFE
BAD47B17
3C7DD1BD
3B822737
3D2D2E1C
3BA1C0DA
3AD824F0
3D07526F
3C96B518
3BC841F9
3B86750F
BCF6B9D0
BD3C3C77
BB7138E8
3D1A3535
BC61A31E
3CC89134
BBBDEDF7
BD3B18DB
BC1281F8
BD1A15DB
3D0B0FC9
BC9E108C
3A12A28D
BAD703B2
3AA8A378
BC55DA27
BC58DD7C
BC16764F
BB62F2D4
3CCAB92C
BCE8EA04
3C7A0D0C
BB454849
3B25E908
BC5420EA
3CC38D1E
3D28F4EC
BCC45712
BC874356
3C0189B8
3C13FC61
3C85197A
3BCC8C20
3C900490
3C35C041
3B922094
BC5BF346
3CCF0EC6
BCC32CDB
3C3941D6
BC86309C
3CE0E3DB
3BA6D166
3C60AB3C
BC532F52
3C9036AF
3CADAE24
BC807281
3BCB2BCD
3CADB0DE
3CD2684D
3CEBDCFE
BCDFD18C
BD2028CA
BCE6DFD3
3CB9F30B
BC8F6208
BD12C0B2
3B69A1C5
3B992617
BCC8B9E3
BC5AB33F
BBE4B105
3C439D0E
B9ED0052
3BA1AF12
3CBF8D49
BC559DC1
BC5F7E15
3D0D3126
BB74B1C3
BC877037
3A81B30D
BD2051CA
3D0C12C8
3CC7287E
3CCADE4B
BC96172E
BC3A99C4
BC95BE0D
BD3B308D
3C7D3474
3C2BB4BA
3C530C17
3D2A99D2
BB21864D
3B897F86
3CF8E813
BCB92C71
BD0B8F4B
BCDB5485
BC16AB48
3CF3C311
BCF3D479
3B301A0F
3C6D882E
3AC82040
3D10C910
BD181EF6
3B9E84E6
3D104161
3D211772
3CCE9E5E
BCC0530C
3B85D5AD
BCB2ED93
BBBDF630
BCE36164
3C088E84
3C2047D4
3C525E06
BCB8C89E
3C1A7B41
BB046D8D
3C1D2082
3CBA9BDD
BCCF96E1
3CC9E379
3CB0E5E6
3C640A6C
3D60EE57
3C59B5E9
BD0D6A81
3C8380BE
BC58424C
BB8A1314
BD0B678D
3CE15301
3BCD875D
BD500DAF
3D2C8605
BC8DF8E7
3D27B79F
3CA66BDA
3C5451FC
3D53935B
BD2C38F3
BBA09475
BC47ADA9
3C030A56
BBEB7D27
BC7DF19D
BCC8B14A
BB9494CD
3CA8F0F0
BC91E96C
BC0E5BCE
BC1B8F73
3D3E5B1A
3C21363B
BC22D71B
BCCA123D
BCC15783
3CBA07CE
3D00B8F8
BBA6BA7F
3D24A16A
3B8E0E76
BA09D204
3987D85A
3CCC7EFF
BB803295
3C979DAB
BCCAF958
3C4522B4
BC40420F
BCD9E79D
3C96D168
BAB71682
BBEAA3CD
3D0A5EAE
BC83B4C0
BD1E5230
3D11AD3C
3D0F916D
3C9B089A
3C01D1F2
3C43A78A
3B8D7D97
3C368D5B
BB31E312
3CD02A4F
3C3C3E09
BD260385
BCE87062
BC2ADF3C
BBAA3E42
BC8AA723
3CB07DAC
3C2D17FC
BCE04C3B
3CA206F1
BB8DE419
BC84BE0B
BA434B80
3C930886
BD237931
BAB28EDE
BD0D1FBE
3BB884D7
BC8F14DB
3D1C833E
BCD3FFC7
3C4A7AE3
BB327964
3C84311D
BCB99E1C
BCCBA8E0
BC4D939C
3D081E7D
BC7315A1
3B142566
3D18746B
BBC5C32E
BC0E4CEA
BCC32DB2
3BA1D6BF
BBEBA3BD
BD0FB514
BC97FB6A
BCCDFD19
B9E8F964
BC6009C0
BD2608DE
BCD9641F
3C9A9110
3D022E0D
BCD9F7C3
3BC7981A
BC85F832
BCC9950A
BB782F51
BC70F16F
3B39D29F
3D0F39DF
BCF67507
3CC34C86
3CF50E34
BCB52E4B
BD609BB7
BD03A861
BC99F509
3BF28EA8
BC0D6152
3CA9B505
3C8080FA
BB0233F7
3C94E02C
BCEEBA5D
3C5D0B74
BC31F9E3
3D35E0F8
BC06C04E
BC801D27
BD361713
B9CDAED3
BD56D910
BB0200A1
BC7754CB
3D159D05
3C4B2CBA
BC5CDFD5
BD28D55C
BC8C4878
BC06FBBD
3D1A615B
BBF1F05D
3CF8D45D
BBF410C9
BCC1BAB5
3D229571
3C84E1E7
3CA310A6
BC90BB03
BC4C2218
BCA9A1BA
3C0D93E7
3CD9F036
3BAFB829
BC38F43D
3C9445D2
3CADEA1E
BC35E52A
3D0A177B
BC44899D
3D0CDA54
3CE10CC0
BBF23F38
BCF7BA16
3BD0754E
3CDAFB64
BCAAF4A0
3C9A2E7F
3D1F7850
BC8E88FA
3D5E2677
3C439805
BC85BBCC
3CFEC065
BCC0B2AD
3BC9FE66
BD437F46
3C8DC479
3C9F941A
3D2175EC
BBA8E57C
3CF80205
BCF1C575
BC70C20A
3C0653A1
BB90D83F
BCF26685
BCBE0F2F
BC27A70E
3B59C9E0
3D4260E8
3C7980F5
BB45E0F5
3CF28233
BC841D9C
3D2D6F1F
BC870A81
3A1802E3
3D04D171
BB670B92
BC6ADC82
BD3A6C42
3C889DFF
3BD771EC
3BD529A8
3C1C54AA
BCAF405F
BBB4A96A
BCC47362
3CE8C51B
3D2676C2
3C914A75
3CCA082C
BCD3964A
BB8C9B59
3CB666FA
3C7F4342
BC5AE7AD
BC86385E
BD338D61
3D2EE393
3B8D3AE7
BC8BDB35
3C871CF5
3C5787A6
BB8ADACF
BD50A4FE
3CA1FDEC
3C8F40B0
3BF122AD
BA8D749D
3D6661E4
BD221BE9
BC5BE1A8
BD0D12A3
3CE66087
3CEF46AA
BCE9563B
3C05CCA8
3CFD0940
BBF01A5A
BCEC4934
BBEACE15
3BEEE09E
BC82DAA6
BCBF37B9
BC05B597
BBBD0809
3CE29988
3CDC38E6
BC1B4886
BB303BF2
BC8240ED
BC3D343E
3BB6AF95
3D02A90D
BC7C0F45
3AAD8204
BC170332
3D039EBB
BBAFFD5E
3A3DB264
BB8E79C0
BAD5ED32
B978FC44
3B3E9FE3
3C2E528E
BB736FA4
3CB642B2
BCA8481E
BD17EEBA
BB9E962E
3CDC7623
3CBD7003
BCB94D5E
BCD1CDF3
BC991D73
3CEF1F3D
3CDD4F31
3C31A021
3C41743F
BBA1262B
3CC846C1
BCFC87A5
BC778A10
BD0D2278
3B87939D
3C80A4A0
B9974419
BC99893E
BD009460
BBB327A0
BC1C0752
BB13E728
3CE5EC59
3C40782B
3BB77A55
3BFCB634
3A6CBE5A
BCCDAF15
BB8F0907
3C722043
BCC7DCD9
BCF0ACDC
BC1C32E7
3BFF129A
3AD611C5
BCE743A6
3CA160A3
3C94C016
BB26BC98
3B63458A
3C851DAC
BCF00764
BD167DBB
3C26DF68
BCB4A523
BCA41589
3CE72035
BCAFBAD9
BC5A8C3E
3ADE6175
BC8969D6
3B232056
3C60E157
3D178862
3B0DEEC1
BBFE926D
BD224EC5
BD0F3FA4
BD448429
BCB9DD71
BBC23788
BCAE3242
3D267D42
BCDAAE01
3CFB5D6E
3CCD8376
BC51046A
BCF401C5
3C8B0B2C
BB2616AB
BC86E349
3C418358
BCA7AA69
3C8CC7FA
3D5CD284
BBB25A5B
3D434B5F
BD1852A7
BC439079
BD1BEFD0
3CFFD6E5
3CEB7C50
3CA3B6BE
3CDC3AC9
3D191311
BCBA78A2
BC4E505B
BD083680
3BBF3636
BCAD7A8D
BD292487
BC4795C1
3C45D639
3C7485E4
BCBB9E3C
3C8C6E6E
360B8FF1
BCD36F7E
3C35A8C4
BC9F81DB
BCEC8CF1
3CF8741B
BB8B7C35
BBA8935D
BCC4E832
3C6FA3FD
3D1C2A6E
BBC931B8
3CED38B3
3B75E677
3CAD94F9
BC844E0E
3C66B89C
BC513BC7
BC2EAB7A
BB993EAB
BA92AFC5
3B59D9FC
BC065A17
BCB8250A
3C32A214
B923FC16
BCF8F656
38CE17A6
BD0C8FFC
BCDDDFE5
BCFF880B
BB96A0C1
3CE78870
3CD78CAF
BCBAC9CB
3D00D52D
3CFD68E1
BBBFEC6A
BCA7BCA8
BB3A6DD0
3CB82540
BD0BF7F0
3C3C03BC
BB261C34
3C219DBF
BCAEA88A
BD0221AE
BC2D46F6
BC686CD1
3BE2A0CA
3B57444A
3CB9DA4C
BD0268E1
BCCFD058
3C594805
3C23E0B0
BC43448E
BB50A97B
3CBE146D
BCE14FDC
BC6DC5D6
BCC8D881
3C6DE7D0
3C9C189A
BC7B1473
BC9B866E
3BDC275E
3CB2C5BB
BCA12AF3
3CF674D1
BCE60766
BD0C7757
BC75AC55
BBC08190
3CF774E1
BCB88B62
3AABD07E
BD11485D
3CD994C7
BAC62B48
BC291CC4
3C3E652B
BC9A5581
3D4492D7
3C157F6E
BB544943
BD070A66
BD28FF83
BC97D3C7
39B66EF0
3CC5FFF4
3C828F26
BC021A41
BA112AE0
BCA65D98
3C08AE65
BD4F5ACC
3C0A3711
BCC6BF37
BC47D0E5
3BD60CBC
3CE8FBD7
3D1F836E
3D43EDB0
BC997E21
3CE9DEF7
3CE6164A
BD3C0641
BCC9A77E
3CF2297E
3B4790CE
BBF40B40
3C86B98D
3BC3019D
3D4D8C45
3CEF84BD
3D56CCE6
3CCF62A9
BC93699F
BC3DF7B2
3CFA97AC
3C8F0B6B
3D0558D0
3CF505D1
3C9DF8A4
3CF5C9E6
BCC31CB5
3CEB8C40
BBAAD124
3CAE57CC
3C635D32
BB26038A
BCB92E55
39FA87AC
3BFFBFA9
BC1F7F0C
3CCDD038
3C2F1ED1
3C99CC24
3CF67939
3D0E2039
BC24023E
BCBAF5D5
BCF3D51A
3C060614
3AD26842
3CF1EB6A
3CBC6251
BC994764
3B086036
3D0016DC
BB3F6A39
3D38FB94
3C301282
3C48527F
3C19F47E
3C9174D2
BCEE0C17
BCFCE315
BAD9F0A2
3CDD5E4A
BC373F31
3D3E7211
3C579EB8
BD01313E
BC3FBB01
BAA179B8
BBEF2816
3BE0AAD0
BCF8F2FB
3B4D30CB
3D117558
3CA057FA
BCD2BC30
BCB8B4E8
BC94B8F5
3C0CEEFC
3C3151B2
BBC871B4
BC0BCE8B
3D58F77D
BCE2C3E5
BD11328D
BCFC3E09
BD001224
3C2A7AFE
3BA8A627
3B981850
3D0DAAC9
BCD5F5D6
3CA286A8
BC106904
3D07A23B
BC826A08
3C26CDCA
BD08FEFD
3CFB114E
3C99087A
3C3B4A59
3CEEAE34
3D170C56
BB4EE784
BC7C24A9
3D0C6F0F
BC287B49
3C269D23
3B274C35
BC02A75A
BCA43351
BBE9F1F7
3D0028E5
BC1D52D7
3C4B7EEF
3D4A3B22
BC7925F1
BD44359F
BD1C9A85
BC685E8E
BC13F1AF
BC7F8D13
3C481974
BB34786D
3D0DCDCE
3D0B0F0D
BB8D0E05
BCAE2146
3BBD7FD3
3CC14E49
3D0FC67C
3C4BD9F3
BC820487
BCA21C55
BCB9FF6B
BC71A925
3BBE18BF
BC6B3F7F
3CEDC718
BC8C305A
3C4F6888
BC7C39A2
3BB78A9B
3C28FEFD
BA0F014B
B932B0E4
BD17F71D
BC05C28D
BCB9CEF9
BCC28226
3D0077BF
BBD405BC
BD21259A
3B7781D7
BD22834D
3BDAC0AB
3C52A3A6
BD314F2D
BB767AC6
BC32B346
BBA2AED7
3C6C70D7
3C9899BF
BCE75686
3C4FC4CF
3C8DC586
BCA6D846
BB0A847E
3C124689
3BA2D3EA
BCC5A6D3
3B94ADF7
3CF2507F
BD141F06
BC19AB17
3CAF6802
BCB25DB6
3A3596C8
BCB41EEB
BD06525F
BCEE122C
BC978DF1
BD354A2F
BC9CC99A
BBE48FE2
BAD4C33B
3AEE1649
BC5A0606
3C91AB23
3C8B68B4
BD23F01A
3BEA5863
3C5CED41
3BDD1707
BBCA3ACC
BCDC1468
3CED4C9F
BC16AD61
BD1988B8
BC9FBFEF
BCCA591F
3C90F22B
BCCC6061
3B631107
3BDCAB67
3B39C182
3D1A3DB4
BC8B6A2C
3CB97643
BC7D43F8
3D133F27
3D05875E
3BD61246
3CCDC3D8
BC02944F
BC27E019
3B3DC2EF
BC90D1DF
3D232823
3B5A0D27
BCAC21FD
3CB1C6B7
BB9C3D0D
BCC3C8E2
BD370AA9
BD00BE87
BB3D436D
BAF28E27
BC05E88D
3BF69080
BC8D67FD
BD8B5E96
BC4C34F7
3B0D3BE8
3CDF19D6
BC201183
3C3AEC65
3D4F0033
BC7655C8
3C5BB2AE
3CC3E4FC
BC283899
3C1EC446
BD5501BA
3C76B2E5
BC4C1EBD
3D0D8BA4
3D46649E
BD1BD1B8
BC5B17E9
3C211437
BCA44BA4
BB16B9C0
3C22DD9B
3C1C6A39
BC4C1151
3CC2F0AB
3C611772
3CA803C0
3CBD76EE
3C4C575C
3CE4359F
3C5E1488
3C0F3136
3BFA660D
BACA722A
BCDB1CBC
3C2895B6
BBAEA6DC
3CD18274
3BAA5B1D
BCBE1071
3D060583
3CB95D84
BAF4F3DD
3CD24D75
BBD312CD
3CA98718
BCC2B841
BC3BE660
BC0AC744
3D04D643
BBFCD782
39CCB1B0
3CC8ACE2
3CE8A570
BC656118
BAE24D12
BCA7FCD4
BBD3ED12
BC4688E6
3C21CD3A
3ABC26B7
3D003EB4
BCF269E0
BBDB3607
3CBCA461
BD290DFB
BD596059
3C454CA6
3D1D05E5
BCA28A03
BB742BE1
3D4A66C1
3CB0516C
BCE3E766
BCD1145A
39488F1D
39B975E9
BCA0A1CC
3CFAA97F
BB3456B4
3D3B0524
BBC51370
BCD9DAD2
3CA3443D
3D2C427E
3CDFBF83
BC2F350C
3C8A181C
BC4176C3
3C8BFD9A
3C96CE43
3C3186F6
3BF2C71D
BD0FBCF2
3C827F01
BC08981F
BC408B76
BCADC7EF
3D0F88EF
3B1DCA81
BCCAEC22
3B0A8580
3CB3537F
3CB298A4
3B18145E
3C99E3D7
BCF2B3E7
3B538EB3
BD63B19B
3C3B0ECA
BC1CF3B6
3BD76166
BBD414D5
BC107CE5
3CF31EDC
BC154521
3CC3A3C4
BBD97FF9
BC05F725
3CDA6F4D
3D1EFA61
BC13EFF7
3BD1E5E6
3D4F195E
3C2AC4D0
3C9F89D3
BC3E2138
BD9F5C79
3CE50EE3
BC907F3F
BD235D9D
3AB4730F
3D165AB5
BD4D1435
3D0D5CE0
3D0DFAAF
3C8A20B6
3CC90A6B
BC17AE5D
BC9A88AD
3CDD5942
3CF15C99
3D1357B1
3CC2ED86
BC962175
3B8CAB8A
BC54F01C
3CBFAD5F
3C4A4BE9
BCD522DD
3C464990
3C834F76
BCF79D91
BBF5C310
3C4AC7A4
BC92A7A2
BD10990A
BCC94EFE
3CCC5A4C
3CE97E13
BC72C6C7
BCE13321
3C940E3F
3CFAADE6
BCE40ED3
3CCD7BEA
3C98F3B7
BC889459
BB951AAF
BCE2C4BC
3CD2D194
3B3A295C
3C3D4F16
3CE43EA4
3C8F3B72
3C0DC2CC
BBD40F61
BBA68D88
39FEA7D5
B9BD1A52
BB8EA489
3CA9F7EB
BC0E4385
3B234C4B
BD474066
3C1B65ED
3BFD54D5
3C5932A1
3CEEC687
BC49638C
BBB8B91A
BB85227F
3D3624B5
3BD5F85A
3C207E65
3C5A4FD8
39EE8A62
3AEAA6D2
3CEC537B
BB737AB6
3C310195
BCC94D51
BCC88F50
BCA85A27
BD0AEB66
BBF7C12D
3C2F7D31
3D245621
3CD6ED17
BC9C9745
3D0342E0
BBA74A5C
3CED4406
BCABE7E5
3B319F75
BC4EABCA
3C5D5E15
3C4AFF6D
3CD3151B
BCE9B96D
3B1C3C0B
3B06EAEB
3CF2338F
BB6E4AA1
3CCCF4DB
3CA7D608
BCC610BB
3CF5D0D2
BD466179
3CFA9F6E
BBB20912
BB06EE1B
3C6FEFE8
BBD23440
BBDA35AC
BC25501C
BC49E2A2
3D066A7D
BCF924E5
BC9CF503
BD01362B
3D25902D
3C576973
BC29F16B
3C4C857F
3CB35603
BC60FC2F
3D0629B0
3D358CDF
BB22908E
3D1190D1
BB68E485
BCDEA755
3B953587
3CEA6C1A
3CCFD926
BA30BF8C
3C97C519
3BF365A8
3D04E8D3
BCBE2D62
BBE32D21
BC5B1CF2
3C2219FB
BC0D4395
BC6B59EB
3CCA83E8
3D06A13A
3C38836A
3CA22340
BCF38CC0
BCDD9B51
BD0566A7
BD01B6EF
3C339E28
3C57EFAB
3C163C37
380D1F55
3AC461EF
3A8E75A4
3C3FE345
BC869AEF
3BDDF0A1
BCE11BA4
BC8A1D25
BC2E5E4D
3D11904B
BCD70A08
BA076E63
BBD41B76
BC669F06
BD46E2DE
BC4A2411
3CEA77D8
3C4DB66C
BCEED5D6
3C5C0626
3C9A865E
BD18003C
BAAD8F70
BCF151B2
3C7F99A9
BCB9CA5C
3C8CD607
3BA91A96
B9262486
BCFA6DF0
3B88061E
BC96E661
BC231086
BC8F2B4C
BC4A573C
BD23175C
3C59889D
3CECF52C
3CD8FB0E
3AA8584E
BCA61E78
BC453F3A
3BC71DF7
BC623366
3BAC3CB4
BC4F999B
3C9EE88E
BC996059
BB26C9AE
39AFBF42
3CBA5135
3D128F9F
BD0862C0
BB9485F4
3CF98817
BD217D43
39343C91
3D068D9E
3CC5718F
3D18111E
BC8C82FB
3B4F86E6
BABC677A
BBC7009B
BCD80113
BC7317BA
BB242940
BA84858B
BCBDC12C
3C6A07DC
BD1E5FB7
BBE93538
BD13B702
BC565145
BCE62F3F
3C818CFE
3D14ED98
BBED8782
39E43CDF
BC9D85B7
BD1B1DC8
BC42E416
3D0EEFBD
BB6EA463
3C1E8EF7
BB99CBD9
BC7D9847
3BDB3EAB
BAAD3684
3B561E5A
BC942D7F
BCD443EF
3C03BB6C
BD1D1732
BA6D89D3
BD0B9057
BCB30E80
3BFF8673
3C20C9FA
BCA346F7
3C8A6B5E
BD22107B
BCAEF1F0
3CBBAA30
BBCDB3D2
BB8FBD8D
BC8B12B8
3C826D99
BCF54AD0
BCA5F486
BBC6EA1F
BB8AD155
3D1C3CAC
3C878D28
BD0C80FD
BCDDE91F
3D07D186
3BD6E123
BD46D0BA
BD51ED4D
BCC58B90
BD5797B1
BD0642C0
BCA4360A
3D2AEC8D
3D6484E5
3BEADA54
BC468E5A
3D044B89
3D3A827D
BD29F8F8
3D2635F5
BB40980B
BD0D49E5
3B9DF6F6
BBC432B5
BBB643C9
3B950159
BB98EFFB
BD88CB58
BD6A2CFA
3C1FF0C1
BCD9227B
BD041305
3C30629E
BD14E3F3
3CC545BA
BCBFC9E5
BD41E182
3CFA8969
BD0E9BDA
3BA8E3A4
BB265FD1
BCB2D35C
3B2998EB
BCA4E98F
BCBC2BCB
3CAEF475
3BF76049
BD030D9C
3C03E4D1
3CE4B9F4
BC5E82D8
3C87CC7D
3AE48073
BC9C09B6
BC86AD2E
BD00E18C
BCB19C25
3BD1CAE3
3BE94162
BAA2D456
3CEBFF98
BBACE2E2
3D02F4F8
3A064D14
3C0AB032
3C8B489E
BB6E6070
BC243A07
3C8D76E1
BCC4F715
3CE2B2E8
3CF8B5BF
BCCDAC26
3CF1B54F
3C14F40E
BC6047D4
3CFBF6F1
BC268EE0
3CD7F697
3CBAC421
BBEBE7DB
3C6E3E37
BC39FCE6
BBC227C3
3DD18FC5
3D0FEB80
3CC7E09F
3C15D432
BDB495FC
BC24E3E5
3CFAE3CC
BCB6904A
BCC36EEB
3C8C8BFF
BC4B9453
3D23FB52
BBA490EE
3C770A23
3D3378EE
BBAE2293
BBD8AC69
3D099A48
3D72CA8D
3D8247F4
3CE1CA55
BC9AB4B7
3C534D1A
3D0BE638
3C885BEF
3C55C23F
3C6C848E
3BA77E09
BC606ED6
3C59ACAF
3BF1B321
3CA230AC
3AAD84B3
BC9697F2
3B80DB5D
BCB2E8C0
BCAB6FBB
BB634966
3C9BA725
3C3D36C2
BC4DAB84
BD09D22C
BC6417D8
3D04113C
BBC9898C
BCCEC52A
BBA33727
3C833681
BD34E8FB
BCB070AB
BB869586
3B8BB139
3D31145A
3CAA821F
3BE43C55
3BA6207B
BB0A8A88
3C1E67D5
3C6C1C89
BC11C30C
3C712CFE
BBF9C178
BD3A4724
BB7DB11B
3B7DCA9C
3AA0795D
BCE6C7B5
BCEEFABF
3B2416CB
BB240AB7
3C11A747
3C841787
BBE8989B
BBB35D0F
3CBD4937
3C8A8FA6
BCE93F94
3CA3AEC6
3B9A9B4C
3C721775
BCF78DD6
3C3A87BB
BC95DCAB
BCED4D40
3BBC0FFC
BCA20A16
3A0B289B
BB82C598
3CB43F02
3C1E48CB
3C8A8B74
3C5324D6
3C551A0E
3C9F34E4
3C010873
BCB85836
BC26EB26
3BFF362C
BD168ED3
BBC1A338
BD2FB514
BC5A03ED
BC2F082B
3B773830
3D129132
BD2B7407
3CCEFADA
3B4BD4AA
3D30F1C0
3AB57FD4
BB37917C
BBFBA7D7
BC06EBD7
3BDFECE5
BC5DBB32
3C06D242
3CDBC706
3C7EA87D
BD01495C
3C44F1A2
BC5E4961
3CB005ED
3AFD6D7F
3D23DF89
BC35682C
3CDF8B4B
3C09DC42
3D2D0D64
BC55B970
BCE5459F
BC8E0221
BBDABDBC
3CAF3B57
3C80E934
3C581931
BD1538E2
BCA11193
BB92DBBA
BC001D51
3C82CEE7
BC6DAD17
3C9F534D
3C560419
3BB5484C
3CC66BBF
3CDF8C58
BD03B561
BD1ECAFC
BB2F05E7
BD42DF43
BBAF8162
BB379807
BCBF50E3
3CA256D7
3D5E1FA6
3C814E14
BC2FEFB2
3B974D24
3C510907
BD4153A2
3D0D461F
BCB618C1
BD0F9386
BC930F3C
BD375CDE
3B68FD04
3D289276
3C976F1D
BCFD2667
BD2A8D07
3CB2495E
BCA23E18
3C400B89
392EC310
BB0F404F
BC08FD8A
3A06DD4C
BB47DCA3
BCE8D17B
3BCE928A
BBB3A0EC
3CE09064
3CBDD767
3C002B9F
BCE781BA
3C5D0B74
3C808927
BCE8F1FC
3D2934E2
3C2AD165
BC9DA639
3B1A181A
BCD9F905
BC99A1C7
3BFF13DC
3C9F5BE6
BC325552
BC209FF3
BD074935
BD0EBF4B
BD0E6E58
3D1A9882
BCD12125
BC2CC2D7
3D0E037E
3CA5FE97
3C6EE378
BCD1DB5F
BCCDB84F
BD092BA8
3C012C5B
3CAD3847
BCA53940
BB31620D
BCA93AC2
3CF0FADF
3CE8657A
BCAF9874
3CA1CC6E
39F0F0B2
3CF8C254
3C6D175B
BCE51CBA
3D30F8E1
BC1B1BA5
BC175A9A
BC963D23
BC89FE1B
BA46B3B7
3D32344B
3BF73328
3B92E49F
3D5A6231
39A09231
BC56DA01
3D1ACB5D
3D046BD5
3D6C753E
BCEDC642
BD4FEE8B
BCF9C737
3D52E19F
3D4D05BD
BCC773FD
BD619546
BC8B7E18
3C39D727
BC95D29A
BD2BB44E
BCD1C483
BCB97750
3BA39C11
BABB946B
BCB49B7E
3D173F9D
BD1B395C
BB0E8E4E
3C2EE0BE
3BD310B4
BD10DA0D
3C593236
3C1573E5
BC2BF693
3C51089C
3C5C42F7
BC8F72CF
3C9CDB02
3CDD23C8
BBFBB848
BBD9F905
BCFE8A14
3CBF118E
BCADD6D3
BBC06B55
BBE0028A
BD951ED3
3D22BEF7
BD132D03
3C14F194
3D652498
3CCBEC68
BD17DAE8
3C414EEA
3CEE13A4
BC3E806E
3AD8B437
BBB9544A
BD4B719E
BD005469
BD08CCF8
BB3401FB
B7AFB67B
BCD21541
BD25A541
BC18D894
3C8D495F
BC8477FF
3CC8ABD6
3D0F2AAB
3C83E05F
3C5B5526
BC0590D9
BD3BFFC0
3CE98C8C
BD254AF8
3D5F9C63
BCC804E7
BC8468B0
BCCE1B4C
BCF4A813
BCF18182
3CBCAB17
3B420D2B
3C83873E
BC83BCEE
3CAA9F10
BC0744D8
BC17E483
BB65D3DA
3CD3052B
3BBE252A
3CC0F9FB
3BD6E804
3BA31C24
3CCE7E48
3C19F31B
BCE3E293
3CDA6938
3CAA5F19
BC848E3A
3B8E0BB1
BC89836C
3981A62A
BC61E421
3CC6C516
BC2B876D
3D241C3F
3BBA204D
BBBEE5D9
BB78431D
3A192544
BC08B5E7
3C6D9606
3C51DC6C
3D0030A7
BCD35258
3D066FA1
3CD400D3
3D340612
3CBC5AFA
3D9F4129
BC751698
3D35926E
BCA9CF06
BD831C65
BCC751CE
BCF156F0
BCFF0960
BD1BF0F7
3D4F9BCF
BCD2F96C
BC836B5A
BC822DD8
3B49A34D
3CCEA8DA
BC26C63D
BD1EEB98
3CD0059C
3D80B30B
3D47A6F3
BCAB87D9
BCA969F1
3BCB8956
3B9C40E9
BAD48883
3B60401C
BCF9BC19
BC152D03
BBFEF43C
3D0B6E93
BC8D580D
BCD2D814
BCE1BDF6
3BED0B87
3D0C4F2E
3D076295
3CEE6CC5
3D0288F7
BBD451FC
BCB96801
BC821625
BC3A7C68
3B2738EA
3CB954EB
BCE444EE
BD02C7E1
BC973358
BC57D4D3
BCBBE7A2
3CFBC6EB
BC7F26BC
3BA72DEC
BC6B78F5
BC8D79D1
BBCA25E9
BC94053B
BC4B322D
3C4FD6D8
3D03F664
3C0F3B9D
B8D6927C
BC47298A
BCD285A9
BCB7B1E8
BCAF3F53
3C6378E1
BC70D18F
BCEB9E13
BD081634
BD0EB0D3
3C0B55EA
BBE8A71E
BD1009B3
BCC5E9B9
BC0A2E0C
BCF3E49E
3C578DF1
3BF12D54
BCD6E123
BCC7FE31
BC6C134F
3C506D00
BCBBE7D8
3BBC3AC4
3B72D74E
3C9AAF43
3B32C1B4
3C90CF25
BBBC97F6
3CEB49C5
3D04DF12
3AE487D4
BBE9EF07
BC88E0E5
BCB10881
BCBDB106
3D0C21C7
3CB201A5
BD15A1A2
BCBE5068
BC69B7BF
BC3E01C3
BC8CF257
3B85B9D3
BC96AA66
BD086A4D
BCB2898A
3C9757A0
BA3C52E0
BC942D13
3C03EF59
BBBC4368
BC86A388
3CC67D27
3C84C2DD
3CF04D70
3C92BEEA
BC5E5952
BCB80199
BD0C0B21
3C45ECDF
BCB40DEF
BC75D936
BCC7541D
3D46CF42
3D43E385
BC8E7579
3D4884B9
3C81E72B
3AFB51F0
BAE0E0AB
3C87A652
BC91654D
3B97212F
3BE46A4D
BCB18BC9
3B4618D4
3D149D61
3A9DCF89
3D0B0334
3C8FA7DE
BD0FA681
3CDB43BE
3A2BCDCF
BB9D0A67
3C31DAD9
3C356755
3ACD8A0C
BBC6A2BC
3AAB1D50
BD199B62
BCDAFCA6
BCB57B42
3D090F73
3D2DE318
3C9ECB9D
3CA2CE97
393F79ED
3D1BD889
BD69A4C4
BC09DF52
38399649
3C8F41BC
BCF6D839
BBDBD655
3BE7B5C7
3D47EDA0
3C7036CA
BD6ED0E9
BA757C2A
3CFEB2F9
3CC52320
BCCC602B
3CD86CA9
BAB0BB1E
3CADA80F
BCC54229
BCE2F52D
3C01D2BE
BA8FB6C2
3CA6EC33
39F910AB
BD07D1A0
BCDF11A9
3CE0D2DE
BCB00B61
BC9E1A9D
3CB79314
3CFE62A7
BCF1E449
BC374FF8
3C7E718B
BC92BD72
3C073B3D
3C9285DF
B85AF2D4
BC9B18F6
BC9F3C05
BC9DB6CA
BCF78E77
BD02F34A
BC0BCCB2
BC397064
3C1BE955
BD059FB2
3B3BD457
BBE1DC69
BC768167
BBB76DD5
BC8C8C35
BC4C7813
3BCB85D0
3BEC0EF2
3D0796B2
BD139A11
3B7A4353
BC31CDD8
BC0CAD22
3C92A5F5
BC3D3657
BD0149AC
BCADF648
BD56EE23
BB8D3F2E
BC73C26F
BD076768
BC422681
BD36F560
BC63B7CB
3C4E9814
3CFB96E5
BC82352F
3CC24306
3C8E6EC3
BD197105
3B0AD688
BC37754D
BC9925D6
BCD2630F
BD8A039C
BD121DA4
3DA11D01
BA2D16FA
BD1040DB
BCF07945
BC95A914
BCFB3ED0
BCF54F6D
BCDDB263
BD351E0A
BC9D1A8D
BC81A445
3C63FD00
BCA8CE20
BBD04593
3CBF7D59
3B3E7FD8
3A022273
3C76EC5B
BD223168
3D27660B
BCEEC652
BD1F5027
BD3FD553
BCC31162
BC619BFC
3CAC43C0
3D02EDBB
BCAE469A
3CBAF0CD
3C214EC5
3CFD0E49
BB7335C2
BC1513CE
BC2C33D0
BCF66440
3C936827
BC914D2F
3C316ADC
3D642EB3
3C284AA2
3B46825B
3BE74C15
3CEFD0A8
3B7B70FA
3C8F89E1
BD14C80E
BD0DBF8C
3C9D08BA
BC8F535A
BB26CBDC
3BE12FDB
3C338E37
38E4B9D3
BD170A3D
3C4D338F
BC26B06E
BD2F6E4D
BACD7945
BD04633C
3C1A8E56
3A49D4CB
BD6EE69D
3C923125
BD13AD77
3C3293D1
3C48A520
3C166EF8
BCD64B66
3B6CE84B
BC1A772F
3D32378B
3C132F27
BD383119
BCEB847E
BCFAF783
3C8DBB09
BC955EA1
BCD66B11
BD164E71
BCD6A9FB
BC8F5F4E
3C34AD87
3C0D3FDA
BC1CB4AC
3CA25D22
BCDBEF4A
BD1C833E
BB5BE3C1
BCB22948
BC1927AF
BBBCCF29
BCD77C1E
3B9A0A6D
BBD74435
BBA2572D
3C31C001
3BC5F730
3CF65D1F
3ABAF762
BCD38FCA
BCBBAC49
BCD6D996
3AE14758
BB876A02
BBF505D1
BB10B3ED
3D5D883C
BC829D34
3C85C49B
3D5F489B
3BA71025
3CFA930E
3B94C4C9
BD8DAC9E
BCA49724
3CFC3570
BD89B18F
BCD78E92
3D6EB5A5
BC771002
BC70F8FC
3D059CC2
3D3C3230
3C8D2293
BCF06D86
BD250126
3C7FC5B3
3D8A37C7
3D88FBA2
BCDF255F
3B57A873
3CE98E39
BC154745
3B9A5FD3
3C9A2072
BCFDE82D
39A27047
3CAE5A1B
BC9E350A
3C3A4F87
3CE1B4F1
3D040BAE
BC7EF6EC
3C1F2885
3B5BD9B0
BC90327D
3D185023
3BB90D68
BCB60D6E
BBFACF3F
BC67E699
BCF97F12
BCA62B78
3CE77CB1
3CD1C708
BC55241F
3C14D443
BD20C5DE
BC96EB69
BCCE7401
3BA9637C
3A87498B
BCF5917D
3CE99B04
BCBF327B
BBC054AF
3CAAD48A
3D036779
BCDCEA1C
3C5A5912
BC92EC00
BD19718B
BD139C44
BC8D6A81
BCC704A1
BC4A841D
BACA2A05
BD28C2B2
3C3245CD
39EBCE70
BD05FE47
3C03E8EE
BCF2862F
BC41EFFA
3C2CBADF
BC118869
BCE359A1
BCDBC812
3C06FB52
3CB35F3D
BCC89423
3CCE7B23
BC8A4CF5
BC84F9CF
BC8248E5
BCE86D07
3BBFFD31
3CA31B8E
3CD1EFED
BC4214E3
3C8FB54A
BC5094D8
BC87B02D
3C84D65E
BCB7DCB0
3B8815CE
BD25416E
BD2C3025
BCD86A90
BCF9085F
3BB050C0
BC50F0B3
BCAFB565
3B96EB14
3C7B41C0
BC0E0E56
BC4B5FE5
3D3E4CA2
BC3C8770
3B92CEE5
BCF2A42D
BD227D38
BD2707AC
BD0FD7FF
BC47DF93
BBAF59CA
BCBA2596
BC7A171D
3B05CA5A
BD0457E9
3C7A969F
3C264361
3CD3CC30
3CD6A2DA
3D37BD56
3D35C8BF
BBA154A4
BC4CA7E4
BD613B34
BCA7B79F
3C5FBDD6
BCEE320D
BD0E9E94
3C370047
3CB4BB28
3D1CDBBE
3C9AF40D
BC0757EE
3D3F0F24
3C7342EE
BCC9CD74
3C9224C6
3D48EC02
3D3E7F11
3CC27ACF
3C22A963
BD5DBD9B
BD201422
BCC39D79
BCABA0CD
BD19F2A0
BC56A1CD
BCAEC9AD
3D05C8B2
3C97EE9F
3CDA8F99
3A8C76F1
3C63F141
BC9431E6
3D0CB692
BC07C8F7
BBF395B9
BCE390C9
BCEABD79
3CB65A65
3D393236
3A0FF2D2
BD904B21
BC36C0F2
3D0245F6
3CB23AB0
3C922384
3C8B90C2
3AF90E1E
3B9DEFD5
3C6AEE8B
3C2FF6D3
BC7824D5
BCBC4DC4
BB95A2D5
BCE91786
BD1B980C
BCE5390A
3C34619C
3CB61093
3B7144FC
3C285F9B
3AAAABE6
3B927131
BC2E1262
BC023E33
3C14C041
BC81F13C
BCF3CB74
BCB6F6A2
3BF03B7C
3CB043CA
BCCDDDA4
BB501933
BCB40DB9
3CC8F5A8
BCB3AEEF
BBDCC3BB
BC0021B9
3CCBB972
B94CD610
BC93F332
BC271DE7
39EC83E6
BC3ABE42
3BFCE81E
3CB4F2F1
BB02CF28
BD06079C
3BD1FFBD
BB9E434D
3CA1A968
3C40D181
BD078ED5
3CFCDEAE
3BD562B3
3CB053BB
3CCDC875
BD62EE0C
BB81B6B9
BD2193E9
BB8BA133
BCFD0940
3CEC5452
3CC32F95
3D2B5D10
3C9BC8B3
BC078D48
BCF36304
3C95149A
3CFDEB53
3BDEE6C0
BD110958
BD21D4D1
BB41BB4C
3CD97014
3D0F5D86
3C1885F3
3C47ED6A
BD41D903
BD22159F
BD2109B6
BCD0E9FD
3B1C50AE
BC53019A
BCCC660A
3C941B0A
3BF7E884
3C772A03
3C2AD52B
BCDF039C
BA4834DA
3CCEC850
3C6BF6C9
BBC44F0F
3BEF0DBF
BCC75204
BB1E7DAF
3CAA46C6
3C1D27AE
BB1D3FEC
BCA20FF5
3C457FD1
3C99F82E
3CA1EF74
BD05DD3F
BD4FDE2F
BCE381B0
3C2D85E0
BC885C90
BD12700F
3CB3C26F
3C862D0B
3D1D656C
BCC2EE92
3C84563B
3D0263D8
BB99DBF4
3C503D2F
3C5D418F
BD3E8485
BCA72F19
BBB3B63B
BC98D8DF
BADEF3C1
3D1B7EAC
3C22046C
BD5CCF94
BD3C3647
BC2D85E0
3CE69D58
BC090DA6
3CB21A2E
BC46074B
3BCAC54B
3B5B80C5
BCD8DD11
BCFC9D0A
3C5EC6CA
BA37CB5E
3C040C34
3D1BEA5C
BD2AF2F3
BC992535
BCBA4B55
3C59747B
3CB0516C
BC976BF8
3CC9D099
BBDFAD3A
BAF95948
BCC2586A
3C8DDCCD
BCCFC032
BD09DD64
3CB22F5D
3CBB0F6B
3CEA8F20
BC9266D5
3D485498
BCC8D73F
BB8EF175
3CEA51E3
BCF96689
3C903EDD
3CBDD07B
BB0C8F1A
3CC64ECF
3D3C4271
BCC4D94E
3CEA48DF
3C3ED593
3BAE7737
3C0704D7
BC79F4B9
BD274F65
3C846E24
3D096B4E
BCA5CCAE
BCA92451
3C6B3DD1
3D61583F
3CE0FEE9
3D061FBA
3D5AC472
3D4AF160
3CA6D5F8
3CBA6F32
BD882ADC
BD2DFA0E
3C4E859F
BD39AB1C
BC93701F
37EAE531
BCD1CBDA
BC6248CA
3D1890F0
3CE90F23
3D0DC3F3
BBC3E02A
BC58C741
3CDD9EE2
3DCA2DC4
3D569370
BC6FA616
3C7DEEAE
BCF665EE
BCAAD23C
BCD3701F
3C07F349
3BB1164D
3C94EB14
BCAD1146
3BF7C040
BC75430E
BBC4959C
3D0EC601
BC860FAF
3CDDADFB
3D0244E9
BC16B401
3D1A08A5
BC7C83DF
3CAEB5F6
BCE2D2C9
BBB30957
BC3076C0
BD10B3E2
3C08B591
3D086727
BA63A9F8
3C0E1496
3C80B9CF
3CAF34D7
3B73D34C
BD1D37CF
BC8AFBA7
3C18376F
3D37AAAC
BCB15832
BC349D2B
BC2B6D01
3C07F44B
BC4515B4
BBDDE7E8
3BD0F4A5
BC3E497C
3B029D54
BB8EA0D8
BC9EC94F
3CF47080
3CCC93F8
BBA8B886
B9BF6D4F
3BB38A31
3CA46504
BCC9D3BE
3CEF474B
BB6ADB56
BB8AA159
BC0363E3
BBDC5932
3CC709DF
3C9EB349
3CAF86A1
3C9EB349
BB503BC2
BCFE817B
BA15080F
3C3D2087
3CB3B7BD
3C9611F0
3C64316D
BC4CE5F7
3C92135E
3CAAB14F
3AC1490B
BCED35C3
BCEBBB70
BCD4B6DC
3CDE463C
BC7E747A
3C78D0CC
B9EFA3F8
BC33B3F7
BD1374A2
3D00852B
BB510A9F
3CC7BF7D
BCB66E1B
3CC8DDBF
3D18AA36
3C9FE32A
3B81F726
BBAF8554
3C5CD0BB
BD326111
BB87630B
3CC99E44
3CFDBB17
BB183D79
3C976725
BAF24A0A
BC1CF9D6
3B7E31F5
BB857205
3D1F5423
BCF21B05
BC4DD64D
3D57FCFC
3CE26AC4
3C68A8CB
3CF0417C
BD2E8EA4
BD0A6F5A
3BFAD574
BD31D3D2
3D00EA91
3CA3BA85
BB263A11
3C9DC726
BBE1A4E1
BBA210CC
3D1FB6B4
3C0EF12A
BCFA99C4
3C9C99FF
BAE173F9
3D101F9D
3C994FFD
BCD8A8D9
BCBC35A6
BD0E9C10
BD212224
BD80EB5A
BD0307F2
BC2F0033
3CFE5215
3D52060D
3C2604E2
BBA2199B
3B56484C
3CE699FD
BACB7C96
3B01009C
BC1DF7A2
BD0C94CE
BCD98394
3BCA3314
3BDD13D7
3D4EB5A5
3C70A94B
BD20EA76
BD0B99FD
3BD30F5C
3C48BA19
3C3EE07B
BBE9D922
3C9615EC
3CF2FAC9
3C9BD61F
BC341546
3B48DD29
BC8681FA
3CA2AD09
BCB39A2C
BCB63DDF
3CDD7922
3BA82030
BD24C851
BC65BA6F
3BC33966
3D3789BF
3B4DEDB4
BB93A29F
BCE6C6DE
3B3F65B1
BBB6DC0A
BC8B89D7
38D11608
3B00EAF7
3C958BB8
BCBD35B6
BD2BCA89
BCA3B511
38BB3609
BD01E802
3C8241C4
BCDD7195
3D38631E
3C2A6605
3BC5D420
BBD92119
3B9AC411
BBCB7000
BCDF5566
BBB090D7
3C8AB48F
BBBC5B50
BCF60037
3C3520DF
3CAB664B
3C2371BF
BCED373B
3CECE3C4
BCFFA999
BC9044F2
3CEB408B
BD07958B
3B97FF3B
BBEDE6E3
BD569015
3C2938DE
BD0A2D30
3D12F230
3D40B79B
BC2E16FF
BD3DF655
BD9A729A
BAFADAD2
3D077FBC
3CA63EC4
BC823B79
BD2BE14A
BAB5EB8A
3D4ABE85
3B47DFA8
BCCBB35D
BCB1C21A
3B99AF69
BD14492D
BD083955
BB71AE84
B8D20467
BB9F8948
BD288F50
BCBCBE97
3CA08795
BC124D2A
3BCDC835
3BA5B65D
3CFE9384
3CB3B13D
3CC07C27
3D14AA2C
BB50CB5F
BC22A4E6
BD35DB19
BC9D9755
3C748A16
3A72C1E5
BCF42968
BD292FDA
BD1C1C10
3C64A9CE
BC866D6D
BC25DD09
3BD1786E
BCE9D445
BD3E8B71
3BC6C6F9
BC74F144
BC718C34
3D83566F
BB7CF12D
BC277235
3D0B8B84
3D1A464D
BD03FEAD
3C9DEE28
3B95A731
BD037F97
BD627F51
BC1521A5
BC2D7B63
BBB15BC3
BD049286
BC3B57C5
BD33EDBE
3D2574B4
3D175353
BBC98631
BB929193
3C5CDDBC
BC92612C
BD12B199
3C696661
BC3561E2
3C569CC5
BC4FEBD1
3CB5D3C2
BC6A2171
BCA7E415
3BBA1901
BBF8483B
3D5D287F
3D3367A1
3C417BCB
BC6D952F
3B41CA65
BBFF79C8
BCDF2C4B
BCABB26B
BD100714
39F31B49
3BBCDCAA
3C69F567
BC1292CA
3BA64D72
3AFDA32E
BC865A57
3CD35A86
3C7DDB63
BC512521
BAF51F26
BC424159
BC444BF5
BCD6F255
3D09D628
BD1A4A9A
3C169BE3
3C44BBF2
BBAF8696
3D279FB7
3ABE7094
BD1E5FED
BC456997
3D3469AF
BC51D621
3BC0433C
3D06E6F5
3D0B318C
BC916F94
3C572A1E
3DB9A283
3D37EA6D
3C9F1356
BCA21676
BDADE376
BCBE6022
3CCB9311
BDB23F40
BD1EDDDC
BAC999BC
BC09C8AC
3C8589E2
3A4EEA92
3D07E33E
3D3E3525
BCC4FF43
3C08AC01
BC92666A
3D445316
3D817A10
BCF5D321
3C52D44E
3CBD467D
3D1C9654
BC9B4784
3D188F5E
BC28C79F
3C4AAE0F
BCDED005
3ACD560A
3CB0F7BA
BC1A0FB6
3CC9EB71
3CA6CE6B
3C8AB63C
3C11AC05
BC9DB7A1
3D185DAA
3AA01E18
BBD02D95
BCEE8B99
3C6F2984
3C9F5459
3B42379D
3C1173C6
3C11409A
3C1FC416
BC863DD2
BC8C5B58
3C2E7488
BD32B254
3C6AE7D5
BD04A318
BCCADF57
3D608D74
BCC4167B
3C16EC40
3D4227DE
BBB9FB4E
BD03C6E4
3D58883C
BD108985
3A36B578
BBFB9232
3CAA3D56
3C552E9B
3D1C03A1
3C0FDB60
BC2C1100
BD4E64B2
3CCB007A
3C738A3B
3C7CCA56
BC922C88
BCA31D71
BC0F7FB0
BC810E1D
BC815FE7
3C0A439B
3C9DF4DE
BC794134
BC10034E
3BC23F80
BC96B0B1
BD0848F4
3CE3BDAA
3CFDCDC1
3C515BA8
3CA46AAE
BCCAECF9
3CCAC8B1
3CE7BD13
3CAC6DB2
3C96F6BD
BD1B0051
BC338FE5
3C20223F
3B05C47B
3C7ADDED
3C4FA55A
BC0016F1
BCD327C5
3B956BB8
BC366440
3D10664A
BCD7C8A9
BC28F0BA
3D416667
BC66E943
3CAA985A
3D57D234
BCFB1DAE
BCBFC2F9
3C1FE67A
BD1EEAF7
BC3B07A8
3D2B3BB8
BB365816
BCF9CB68
BA855697
BCBD9A2A
3CC23458
3C97BE2D
BB4905EE
3D0E84FE
3CC46E59
3CFA57EB
3D3E49E8
BCEAAC11
BD0AEE8B
3B844509
3D032A06
BD2DEE6B
3C84421A
3D2038A0
BD12F82A
3A775D22
BCD4DEEA
3BFBCB28
3CB38CC0
BCE7210C
BCD88385
BC285305
3D32F520
BAFE6EDB
3CE1A501
3C831DC2
BD47FC33
3CC56E69
BD3A93E5
BD18392C
BD3C2B95
BCC952C5
BCEDB1EA
3D1A043D
3D3ACFE0
BCA18C42
3D19A268
3CA87E03
BD258F21
3AC4E87D
3CF82469
3C9BBE01
BD280339
BD1B68F7
3BEE3E0C
3A64469A
BC74F06D
BCC521A8
BCE0F005
BC088C96
BC235ACE
BBFEBE61
BC7A4540
3C2F434F
BCC9B9BD
BC87D871
BC40B1A1
BC4DD64D
BD09C602
BC648B9B
3C9DD3F1
BC61FDB6
3C24BFD3
BC807B86
BD34A376
3B701755
3BA08A39
3BB24247
3C5CEBFF
BC44CAA0
3990FE95
BC774B26
3BD70EDB
3B7703AD
BCF7E4A9
3C656C00
3CA8E5D2
3CA6D019
3C9950D4
3CC07A44
BC06D009
BCE740B7
3C31890F
BB95D62B
3D379D5B
3C88CD2E
BD2CE861
3CF81627
BD2859F1
BD16D23F
BCDA2C31
BC10BED5
BC070A4B
BCC25C31
BC9B4E04
3CB625C1
3CAE6CFB
BC829C27
BCF4E153
BCD8A223
3BCECB2A
BD16431E
3DA38434
BD2CA7FF
BD515CB4
3BF39F74
BD7A8DEB
3B46893C
3D8B3461
3D0E88C4
BC1B3713
3C9E53A8
BD82367E
BD102349
3CF1F0DE
3D4F25D8
3D3FD27E
BBE22E89
BD57E52F
BD1EA019
3CF18E18
3CFB4444
BCFD3367
BD5905F6
3C5CB578
BCFC1F35
BD5AA293
BCA78763
BC8B6A97
BC9135E8
3C072746
BC219261
BCED8391
3D3DE49D
BC9FFBE9
BCCFA30B
3D4F5C44
BCAD3E27
3CA08688
BC5602D6
3C9680AB
BD15739A
BCF5D9A1
3CBC6F52
3CB0FA08
3D230E58
BCE36BAA
B95189BA
BC52806B
3C236A73
3CE0C1AC
BC7037A1
3A9A5353
3B9A1327
BCD91B5A
BCFF8D49
3C3025CD
3C6ECE14
3B9CF519
3D212275
BCDA851C
3D838F87
3C1417E5
3AC77CD7
3CBF005B
BD4926F0
3C29160E
BD6D301A
BD25605C
BBF54A04
3C779F74
3CBF9CCE
BBE6BD23
BC7EDDC1
3B8760F2
BC8008CF
3C1A9933
3CD354DC
BC1AE55F
3D0BB01D
BC01D293
3D1784EC
3CDC1AE9
BCA8FA95
3C7732D2
3B320FDD
3D164B4B
BD0F2CF9
BB921A9F
BC0790EE
BBC2ACE3
3D15DC40
BD0782FC
3C8D10BF
B923A116
BC357DFC
3D13798F
3CEF9A21
BC894D51
BCFD1D98
3C56DF75
3C7818AB
3C3B4982
3CD8BD66
3DA45EE2
3D3B12AB
3CD86120
3C385BFD
BD9BB01D
3CBDDCDA
BC459388
BBB747EB
BCDE0498
3C11C20A
BD2FD652
BCA2EB1C
BBA5D176
3C852462
3BADE9F3
BBAF99A1
BD1A7D3F
BC5E0F80
3D3F728C
3D0072D2
BC323BBC
3C882137
3DA4CE81
BC160296
B9C5F1A3
3D9036BC
3D8823E3
3D608FDD
3C7EF82E
BDA3D1A4
3C7DBF48
3C88F38F
BD03A282
3B4176AD
3C9794DD
BCE1F695
BC9FC52D
BC580C31
3D071A3B
3C57BAD2
BCFE414E
BB469ADA
BC3578F3
3D86A5E4
3D9D2433
BCF7A2CF
BC750423
BCE36992
3D13E616
3C4CC327
BBCE30D0
3B88D049
BBEE2C03
3D0A0FB9
BBC00A5C
BC6DC7EF
3CF88293
3BD446A9
BCB68CBA
3CF8CAB7
BC0A6FA5
BC9B1CBC
3A89B39D
3B32C814
3C0927D2
BC1A51D0
BD0C3075
BB87AEE0
BCB9AF84
3CCF8579
BC597628
BCACF52C
BCB4157C
BCF2CFCC
BD3A7470
BD992627
BD345C5E
BC8F0D4F
BCA806AF
3D672AE7
BBC7F9A9
3D018CE3
3CCC1F93
3C75C28F
BC9B4C8D
3D5032E9
3CAA9D2D
BC109C25
BC1C2EEA
BBA3C85C
BCCFA7DE
BB83F0D0
BC2C19CF
BD8C853C
BB196F7D
BC8BC134
BB924ECD
BBC3358A
BC983F5C
38D8B950
BC84930D
BAE4CA9A
BCE94F19
3C79CAC7
3CB4D55F
BBA240C8
BC800574
BC4D3C5E
BCBB3CED
BC15BF0F
3CCA2CAA
3B4D0079
3CF944FB
3CAFE74E
3B55B020
BBF43E56
3CD40C5C
BCE6DF9E
BCFCE209
BBD03AEB
3C98EE79
BBB8945C
BD422EFF
BAEABDF9
3CC7E1E1
BCCD1BDD
BCDC2E6A
3CF94566
BC5C89D9
3D283C0F
3CDAF8AA
BC80907E
BA9556EA
BBD88B07
BC29D8AC
BB7C7D14
BD2CF363
3C1E2793
BD0169A7
3BE0EFEF
3C75C798
3D134CE4
3C996638
BCCAD729
BC51852E
BBA0D710
3AD717D4
3D59E823
394E8A00
3D1026A4
3CFF48EB
3D1D131B
3D0705C9
BC85B9B3
BBECA316
3B7DB09A
3CDEDE47
BD365B21
3BC77AA8
BB25DBF2
3BED9AA3
BCA64869
3D011615
3C9F4DA3
3C23338C
BB926DD6
BD3F8551
3CE5181D
3C2A42CA
3D592B65
3C245C6B
3CCB516D
BC002EE4
BAE7C145
3C406C01
BB81CF23
BCD6352B
BCF3014A
3CD674B7
3D6FAB39
3C0C06DF
3CC6EDFB
3CD175A9
39045DF3
BD4728CE
BD03CE71
BCA0E299
BCE0A55C
BD09CAEF
BCF4992F
3C837BEB
BC1AFC1A
391E89D5
BCD0E48A
3A93766A
BBE58E90
BCD141A7
3D30B53F
BC3320BF
3C751988
3D1AB98A
3C1F85ED
BD01E9AF
BC8D4E32
3C74E65C
BC8E4B1C
3C7B1910
BD325248
3B8AF897
3AE51CD0
BC30DB6A
BB9B7943
3D0440A2
3D0D3771
3CB58AC7
3B8A16DA
3C95691E
3BC40741
3C4AC4B5
3D1C11FF
BB59866F
3CA31727
3C2946B6
BB43A587
BC1480F6
BCC6A352
3CFC98D8
BD214C66
BCFF0D92
3B8E8FD0
BB4CC99D
BB0BB1A4
BD12D6D2
BB269CE2
BCCA7463
BC0AC79A
3BF13928
3D00E5BE
BC07A358
3BED8681
BCF4AB38
3CB2A249
3C02C420
3B35A640
B978A507
BD05049C
BCED468A
BB9238D2
3D80A20F
BD896CAB
BC8F0BA1
3C334AB0
BD13A3EC
3A69670C
3BA9F775
3DA866BC
3D1A0F25
BCF978C8
BC4425CA
BD1DC7C7
BD56BBB4
3D7E45D1
3D0DD8D1
3B9A4815
BD3937FA
BB84F878
3A924567
3C4616D0
BD4589E2
BD053925
BD3A2A33
BD0EF622
BD5ABD1B
BCBA7AF0
BD0235EB
BD6B8E23
BD32094D
BD065B13
BC5816AD
3CBCBB07
BC8C11BC
B9F5D153
3D1F0AF3
3CB01897
BCB4861A
3C93D718
3A11252C
BD077D1D
BC968D0A
BD1D14E4
3D015B2F
3CF0601A
3CBA3A23
BD28CB4B
BC87003A
BCD739A3
3CDB1A02
BCEC3796
BC825255
3C9ED4D7
BD984A87
BD6FF485
BC95C7B3
3C966715
3D87CA06
3C672B88
BCA99377
3CA72863
3B7CACE4
BD261390
3D1DAF23
BD197C08
BBDE9993
BD72A081
3C073574
3CD1CD88
BBF330FA
BC71D6DD
BD5D929D
BD67EE5C
3D1B10FD
BB8F1E6B
BB64D7DB
3D315832
3CFBA451
3CA0143D
3B60FC04
BC8C070A
3C34C8CA
3BBD61F6
3BA113E1
BC78F54A
3C0D8AB8
BC301C93
3D477EE5
BC99E732
3D13F291
3CF209D3
36330849
BC2D4B27
3C7CA42B
BD26F4B1
BCB00475
BC6BF877
3CF5E12E
BB7BA177
3BCECAA9
3BD97C9E
3B22B2C8
BC3AF45D
3D89D1C0
BC239B5B
3D26C83B
BBD162C9
BD8C9D75
BCF35456
BC1135DD
BC4251B4
BD02B56C
BB73B417
BCEC42B4
3CFB183A
BA57BD97
BBEB3949
3C21C5C3
3C9FAAC0
BD657B6A
BD045854
3D62A41F
3D1619B2
3C2ED931
BC8DE277
3D831B8E
BC2EF4E0
3CB0D372
3D90A618
3CD976CA
3D2DDE0F
3C2B99E2
BD8D6F1F
BD16E96B
3BB063E0
BD041FB5
BD24CC32
3CB0E6BD
3BDE00E7
BC468AFF
3CF6F2A6
3DB7E232
3D4685DB
BAE8DA1F
BBA432D0
3BFE5A63
3DCD2999
3CEC98B0
BBCAFA0F
3BA86046
BD12279A
BCB5D7F3
BCABDD33
BC141CE3
BD152602
BC06C87C
BC55ACDB
BBB9FFAB
BC1C9207
3C5A76D9
3CB821AF
3CDA430D
3D17472A
3C95000D
BC68F4B6
3D28F989
3A9DFC2A
3CD65F88
3D07A205
BCE49EE6
3CDA8CA9
3C8DEF77
BCD96928
BC463BB9
3CC4B938
BA490C79
3CE0CB52
BB8E1582
BD1BEEC4
3B9E0CB0
3B9A719B
BCC1F065
3D15E402
3D0EE46A
B8C39F89
3CF22E1B
3C86A45F
3AA40152
3C33D51A
BD138060
3D0A28AE
BC93B264
3C8C3A00
3CD47065
3D34832A
3C3CB451
BD35CD41
BCA18E25
BBE5ED85
BC157984
BC9BEB18
3CCAB20B
3C60CB87
BD1B6094
BCE83F4F
BA619CC6
3D10E007
3BF2D966
3CC7FA35
BCEF2EC2
3CF467E7
3B067CB1
BCB69700
BC9C6CE8
3D056E34
BC84C993
BC867382
3BB79EE8
3D041A0B
BC49F4AB
3BE033C7
BC5FF675
BC869545
BCCD7A06
3CC90F08
BD2BF02E
3C41F85D
BCE270A3
BD20E3F6
BB17B18D
BB19EF55
3C79EB13
3CFEB0AA
3CB961B6
3C826825
3D0420C1
BA64D890
BCD35760
3CC5A668
BD0724B7
BC838FD7
BCA07846
BCE94A11
BCF8BA5C
3CE71AC1
BCCDF018
BD37ACAA
BC7B931E
BC815062
3C7706C8
3D3B9BB8
BC190575
BC2D8FF1
3C02EBC3
3C97324C
3D471B12
3CEB18B2
BC896108
3BDE624B
BC6BE81B
BCEAF577
3CA8BED1
BCA46357
BC87DEF2
3C319610
BC8B2DFC
3CF8ED52
BCA1E710
BA12B4AC
BCFC6FBD
BCD347DB
3C9DF2C5
3D17A934
BC406E85
BC12FC11
3B84A642
3D0FD149
BD286E49
BCE16723
BA9BEEB3
BB4B8A2D
3CC37967
3BBF1600
3D43FBA3
3A1D8B9F
BAF7CE02
BAD1C98C
BCA9E93D
3CF2551D
BCAE293E
3C9734D0
3B2236F7
BC45E339
BC8D26FA
394B4256
BCAF8B3E
BD19AE27
BB316614
3C639134
B958BD12
BC86E95E
3CA02B4E
BC972EBB
BB58F92B
3CE8B4C0
BCE70AD1
BC6FF9F8
BD0FA7F9
BC0311E3
BC33EEAF
BA84D161
BCEBCC37
BCE96016
3C96CDD8
3B093447
BCB9DF8A
B9C564F9
3CE63701
3BC97554
3BD375B3
3C59AEC8
3D049BA6
38CFE0BD
3C893E02
BD007F16
3CBE5174
3CD56DF1
BD1856F4
3C7BD0C6
3C9CFB18
3CD7DA47
BCC95762
3C9856D9
BBEB3DE7
BBB8ABEE
BD2BCFFD
BAC8F3A4
BCB7F3F8
BCD92FE7
3C897819
BCF98196
3CD393FC
BC57FAFE
BC92A8E5
3C07AD94
3CD537D5
3D1F221F
BBC75A5D
BBDEF6F1
3A07038C
3C902795
3D9DE3C6
3B429B71
BAD116B3
BC2C09DF
BC9A7745
BCD76C2D
3BBBD65A
3CA90C69
3C516D45
BBB7971B
BD700F92
BCCF9BEA
3C2E24D6
3D8367C9
3D4AC231
3D0AF329
39CE845D
BCF31C22
3C16A12C
3C6D400A
BC2F38D3
3AA4AD1E
BA3695DC
BD2407E7
BCE5B0FF
BCCF1FC3
3CF617B4
BC1100D9
BCEA436B
3CC713BB
BCC4F59E
3C22ED80
3C843046
3CCBDEC6
3C77AB9E
BC99A4ED
3C991A18
3D3C0336
BB85694B
BCB5092C
BD856268
BC0FBB14
BC3E44DF
BD039912
BD0507F7
BD233BA4
3C49D4CB
3C49F872
3BC3C4D1
BCE1031A
BC2E1B31
BBC72A8C
BCEE9D37
BC6F53E0
BC79BD5B
BC82FE17
3D35500E
BC181F71
BBA625EF
3CF16060
3BA2BDF0
3C163125
3D1E1ECF
BBC03626
BD40EA76
BCFFD893
3C949A8C
3CD13470
3A2BD485
BCDCDF9F
BD972D6B
BD490273
3C501E26
3CF7C782
BCA4B73A
BBC89E54
BB9CCD40
3CBA3917
BCFF8EF7
3915A4B1
3CFA14CF
BC424371
3C403D72
3C1D09FC
BAFADA26
BD1FD2CE
3B9B107D
BC187D7A
3D451380
3D0CB047
BCFAE21E
3AB44C22
BBA68220
BC0CFD49
3CF0124C
3CE315AF
3CC80EC2
BCD9190B
3C8F1115
3C9B1169
3CF0A519
3D2E6C09
3C8FF50B
3D150CA2
3D0C0B8C
BB90D05D
BD8B7381
BC638866
3C15FBD5
3C3FD5D9
3C33368E
3B05D1BC
BCED373B
3BE41427
3CBEE40C
3D3A8D2F
BB101DF0
3C0CE185
BD201BFF
BCEDC2B1
3CB55EBC
BAC67F81
3CFB47D5
BC0E8F90
3D6E2039
BC01318E
3C38C2BF
3D80B45B
3D3A8212
3C3EF721
3A928FE5
BDCF1455
BCBC3895
3C6AB805
BDA77773
3995829A
3D0BAC8C
BC0B43C0
BC882DCC
3CD5CD5C
3D29F88C
3C917E78
3D026DB3
BD0240B8
BBDEE3D1
3D966681
3DBCA878
BB4BBB2A
3CCD419D
3AEC0D85
3C631FF5
BBC0EC9A
BC282C04
BD4247A3
BC8C2614
3C36F270
BBBA4D6E
BCF4B0AC
3C93F657
3D238B05
BCE16392
3CFE9C88
3C1702E6
BC93CF8B
BCC0F451
BCC8B688
3CE9A5EC
3C523C78
BCCC5BF9
BBB7D17E
BD3F618F
BC907D26
BC1E58B1
BD061233
BD476D7D
3C9E6942
BCE84995
BC96B9EB
BD3078BE
BD2093F4
BD050DA1
3CD026BF
BC8F2BED
BBC881E4
3CAD36D0
BCB0BDD8
BC39317A
3CAAAACE
3C84449E
BBE1F30F
3B3361ED
3C2E275B
3C416235
BC09F7E6
3B085F35
BCD57406
BCDF354F
3CB9A0D6
3CE4B8B2
3C35EFA6
BC519A27
3CB4439F
3BEAE7C0
BCD155FE
3C9903A7
3AC730AC
3CD62571
BBB4D057
BC9146AF
39D2464D
3CD3A853
3C48C932
3C5C9745
3981C81F
3C8712AE
BCA42EE9
BCF57A6B
BC92F6B2
BBAF76E6
3CB0F063
BD234606
3C6BE3E9
3C712A0F
3C6EA19E
3BF91D78
3C3FC0E0
BC5E9AC0
BCD9BFFA
BC17CA0C
BCB08BB9
3C8D6B23
3C7C33C3
3C9664C6
BBFEF43C
3CA16576
3C8B6523
BC77ED77
3CF8811B
BC5FAAF6
BCDEC2CE
BD0676DD
3C826A3E
3CE1FB32
BCA269B7
BC81DC0E
BC95AAF8
3AECD47F
BBD1347B
3C98AF59
3D123E5C
BCC9E84C
3CF0F5D7
3CD6E7D9
3C9F2B09
3C867B7A
BC28A24B
BD67CA49
BC9DAE9C
3CA44376
BD350368
BC8BE8A1
BC9B7323
BBBFE2EF
3CE3BFF9
BC16D133
3CFAF16E
BC51D2C6
BC3972E8
BCD0FDEA
3AB58B93
3D096986
3CFF48EB
3CCCA489
BC135136
BD50A732
BCABFEF7
3C50F627
BD13F580
BC91584D
BD3909BC
BCF1762F
3D5C8125
3C8DEF0C
BB67DECC
3D2B2604
3A8D1FB9
BCE60E88
3D0176C3
3CC7F639
3C2B1705
BD54E677
BBC0A4E1
3C3C664D
BBEF2278
3BB2A27F
BCFE509E
BD30FBEC
3C7B3454
3CF60327
3C24F730
3C8588D6
BC4915F4
3C4D62F5
3CA8529A
3C1AB812
BC25006B
BC97AB17
BC8C296F
3CB09F70
3B3F0666
3CC1867D
3C99DCEB
BD23AD69
BC3FDEA8
3CAF3395
3A9BEB03
BC829C27
BCDC8DA0
BC9E8592
3C84757B
3CA70E2C
3CC3C120
BC25B88C
BC1894ED
3C4AADA3
3CD93B3A
3D077EAF
3D03BC32
BC7C6CCE
3CCBA769
3CA70202
BC977F43
3C981062
BBA6F827
BBD34130
381999EE
3CB446C4
3C884FC5
BCC04062
BCE52AC7
BC6C71AE
3BB32C52
3CFE85E2
3BFD47BF
BBEE4ED3
3D094BD9
3D37BB08
3C7F5E85
BBE3F299
BC8B281C
3D4568F6
BD21F700
BCC1FA76
3BD6D691
BC96238E
3C3CFB33
3D0E18C7
3D53C1E9
3CE07B6B
3D06F38A
BD489276
BCF452B8
BB338680
3C530992
3D5505D1
BCA23762
BCFC43E9
BCF48F54
3BE845CF
3D1E9A8A
BCEBF983
BC994E50
BCF257A1
BCD6F438
BD515832
3C6248CA
3C7318FC
BC8BEA84
BAA335A5
3CF434F1
3C77E366
3C96ECAC
BBCF56C0
3C352795
3D776A9B
3BACC962
3C5FDA5B
3CD4DC30
3CE3BDE0
3CA47A68
BC571E5F
3CC514A7
3CAF2AFB
3C728DBC
BC16BAC2
BBB82992
BD13D4AE
BAE74BD4
3D0D310B
3BCB24AC
3BC2AE10
3C21E497
BCE48D7E
BD056DE3
BC8DD8D1
3D025E2F
3D249E96
BD16494D
BD20FF54
3D991D30
BC07F1FC
3CFEA232
3D1CC0B0
BCD15202
BC6E8CA6
BC999AA6
3D112A7A
3BB32AA5
3C785AF0
3BE70F03
BD028607
3C0C965C
3D2A3FF5
3C8D8C45
3C0E57A7
3C715E11
B953B925
3D07FC33
BCA6CE00
3D15063C
BCC57951
BD3C0CA6
BC405B3A
3D0D8B6E
3C32EAA3
3C24F1BC
3BE3C130
3CCC800B
BB9FB842
3C410D7C
3B7ECCCF
3D06C68E
BCD1343B
BCBBB83D
BCC7D5ED
BCE1A7BB
3CA6768C
3CB34323
3AABF10A
3D401076
BC9C333C
3C90B9F7
3D5062EF
BC972E85
BA9C82AD
3BF024EC
BD63D7E1
3C871F79
3CA4F0B0
BCF5401E
3CA1214D
BBF3469F
BCBA26D8
3CB99B2C
3BFC53E4
3C7A1FEC
3CFD9BD7
3CEE6538
BCDD5C9D
3C495472
3D828B96
3D2F5E42
3BAF325D
3D0954DE
3D945FFC
3C1758B7
3CBE0BD4
3D8C7FBB
3C51F7AF
3D4351C4
BD02B262
BD93CA24
BD611509
BCED6487
BD33CB74
3B2B7FF6
3D07AEEB
BC4CBC71
3C6CB8FB
BAAA4086
3DB4F8B6
BBBB79D4
3D032BEA
BA630447
3C96E371
3DA3701F
3DAFC2F9
3CB0072F
3CDEAE77
3C8922F4
BC98DE89
3CDDE0F1
3C07E5F3
BD1291B8
BBF5B11D
BC992C57
BC3500FE
3CC3A1AB
BCE4C689
3BD626A8
BBF9B50D
BC73CBAA
3CFFEB73
BCB5579B
3CB851B6
BD0BB200
3CB727EA
BC1AB909
BC51D763
3CB473DB
3C256B5F
3CAE6F49
3CE5375D
3CAD3375
BCA6B78F
BC94F880
3C5184C2
BD77B0DC
BD68E1BB
B8F7E896
BCBE35C6
3C9BFB08
BC847728
3C9C70AF
3CAAC505
BC30D307
BC27377C
3C8786DD
3C688880
3C1B3875
BD2492BC
BD04261A
BC8BCE6A
3D13BEFA
BC9B5B3B
BC665D98
BD77801A
BBC593B3
BC53572B
BBC2FBFE
BC454CA6
3B9D46B8
BBE0F40C
3C265B49
3CC27880
3CA041F5
3CC59C8D
3CFCE168
3D048EA5
BC51BCF7
BD0D448C
BCEC13F0
3CAE56C0
BCB3A0AC
3AD177AC
3C82CA15
3CD2CF45
BB56F646
3CA283B9
3BE80EDD
BD2A28C8
BD12A660
BC54D1E9
BC873407
3C7258E3
BD174363
3C3DD2C9
BC2B7A6D
3CA9AF26
3CE0B369
3B1EC3D0
BBDE6089
BCC3B206
BAB3A158
3AD90971
BCB84414
BCA4F2C9
3C834092
3C9A3A74
3C41FCFB
3CC71D2B
3CCFE048
BBFB56E3
BB548DB6
39BD0788
BCC17B60
BD0E1A0A
3CFF89B8
3C8989EC
3D5A1AAE
BD060C89
BBF01E0B
3D0A0C5E
3C82913F
3D52BFC0
3CC3EA3B
BC60ADC0
B93A3910
BC259B9B
BC507D5B
BC9EB166
3BAE2FBE
BC9049FA
BC522135
3CB181EE
3CBA4CCD
3BD3AA0C
3C10BBDA
3C9EFD87
3CA802B3
3D837E7D
3CD80545
BC99EF2A
BC8D0EA7
B9B82212
3CA53E48
BD1B28E6
BCE6B251
BD2BA65C
3B299E9F
3CC2C17B
3C8D6EE9
BCB8FDAD
3C8FDC4C
3C21B3DA
3AA7660B
B9D8109A
3C7C6251
BC867133
3B0C92A0
BB4F4A2B
BC47ACD2
3CD5C747
BA71DECC
BC638A13
BD3C252F
BBD6E697
BC8C6E38
BB8F29EA
BC9CCD96
BD0F98FA
BCAA0D85
BCD9510A
BC0A3187
BD196801
BCDA9867
3BD25374
BCC125D0
BCCC52BF
3BCB66C6
3CDB64AB
BC083538
BBB78ADC
BC24E30E
BCAC3075
3C6B8D82
3CB04288
3CBC2AF4
3C9B58B6
3C4616D0
BC5AB2D4
3BBA50B4
3C120CFE
3C68F232
3C89A134
3CBA871A
3AE892A6
3958D609
BC65E679
3CEA9783
3CF1DB0F
BD268D83
3C2119A0
BCCA6910
3C9A7420
3C986983
3C991835
BBF30F01
3C901846
BC4171BA
3CA071C5
BC9506F8
3CCEB215
3B1B55DC
BCD6575A
BB44CB4C
3D076F45
BCFD9C78
3CF906E7
BC128FA5
3CAC58B9
3B749E22
3CC55036
BBA699C8
BC3FDD66
BC901E91
BC3BDC4F
3C9F3A8E
BBBDF975
BA01885E
B9DDBC92
BB61B10A
BC86AADF
3D28294A
3CE7C2BD
BC73DA58
BC8EEAEA
BD313CD4
3B1A8A04
3D0054D4
3B786684
3C419B40
3C021FCB
BCD89CE5
BCDA27C9
3D17DDBD
3BB28A16
BD16E7BE
BCB4D4BE
3CEF2E56
BBB88847
3CC451D4
3AB0C32C
3CEC16AA
3D307670
3C1CB46C
3D267077
3C6F1FDE
3C2C7970
BCB9B604
BD32367E
3C8415DA
3C96BA8C
BC6BB3AD
3C517BF4
BD214A4D
BA949BAE
BCF8136D
BCD38335
BD01BBC2
3C5E75D7
3D0C69B6
3CFEDF6F
BD647DC3
3D361805
3C43A7F5
BD117177
BBB0403A
3B22E4C7
3D6064FA
3C5CF1DE
3D190646
3D5A0BE5
BC9B06B7
BD01E7CC
BD874AE2
3CEF389D
3D0F71C3
BD107EB8
BB180BA5
3BFFDEDD
3CA7E557
3C90536A
BAE19633
3D0137BE
3B379DE7
3D08A520
3CA4AF42
3CDFCA35
3C26B576
BD0BDDBA
BD602DED
BCB099C6
BC15E047
BCEB67C3
BC4FBFC6
3D10C1D4
BCCC4AC7
BB8FCCE7
BC868F9C
B983A40F
BBB94C92
3C37B8D4
BC396F22
BCA42EE9
BB97E3B7
3BF2A006
3B228378
BCB90504
3D12A1A8
3CA5A89C
3D3D9BA2
3D2A43D6
3B5BF3B1
3D305BB3
3B80BF99
BDAB4261
BD13429D
BC066FD1
BD5445ED
3C1B0D8D
3CB81154
BD16DE18
3D20DA50
3CCF803B
3C5DE01B
3D64CD8F
BC93AC4F
BD381C71
3C1CB171
3D15F4C9
3CA0D604
BCDD095B
3B1DBE41
3D90B97E
BC54E824
3D135654
3DA4C180
3CF14918
3CF6E9A1
3BCFD784
BD93C84F
BCE1F5F4
3CC22432
BD7CBE62
BC0210C7
3D49EE96
BCCA1D90
3CDC9024
BBF2E174
3D538045
3CCD434A
3C5ADD31
BD2ACE25
3D07C26C
3DD88E37
3D018520
3CC78A02
BCB85B91
BC41C6DF
3C57BF04
BCA5697C
3C937741
BD0CFA6A
3C379AA1
3CF2FC0B
3CCA80C2
3CC0093A
BCE41695
3D027C2C
BC88369B
3CD05E52
BC9C0443
BC76E108
BCC2924C
BBFFA63E
3CD26DF6
3CF371E8
BD1BE5F5
3CFD314E
3C1E2321
BCF1E1C5
3AA4AA19
3D0915A3
BBEFCD83
3A146F1F
3CE413DB
BD77D10D
BA86127E
B8D5D2D2
3B883229
3D873A79
BC05BA6A
3CB12755
3C0006D6
BC272D00
BCB024F6
3C4C86C1
BCBE8BC1
BC1E9F32
BD4FEE3A
BD163BE1
3B74666F
3B008E30
BCACEEE1
BD7EF0A1
BCD9582B
BBD3CCF1
3B8704C2
BD04B58C
BC115F2E
BC83AD9F
BCC6C043
BC0F76A0
BCA66590
BCC331AE
3CCD4380
3CC3C76B
BCA15F2B
BCAF3A80
BBCC87D8
BC86E77B
BCF01EE1
BCA13646
3C3318C7
3C87496B
BB75BA2C
3CD2FC5C
BC9AE2DA
BCBF6A43
3C018C9D
BC83B6D9
BCA6995C
3C9E5845
BC85407C
3C9480F6
3CDD31D5
3C924405
BCB4D6D7
BB51320C
3CC135F6
BCBB0DBD
3B8BC46F
3BA6AB7B
3BBC9115
3BBCA852
BC8171BA
3CE2C69F
BCD19305
BC4D18B8
BD18640F
BC8650B2
BC8EEBC1
BCF6B60A
BC229393
BBAEB51F
3CC35017
BC0E181C
3C8D15C8
3AFB7A34
BADBC7BC
3BD0E083
3D7CE9CB
3D23722B
3D0F398F
3C543D04
BD85F26D
BC3C0717
BB60E080
BD3832AC
BAB9727D
3D155765
3C88C0CF
3C639F0C
3CD13FC3
3CF28E93
BBD35222
BCD2F611
BD025F8C
BB95B26F
3C4DEE35
3C60CFB9
BCC7B6E3
BC662DC7
BC94C5C0
3A48FCA2
BCC1AB66
3C3D1AA8
3BF0F9E8
3CBA365D
3C870070
3D03CB16
3CC06D79
BCC9B662
BBA9EC38
3B954B2B
3CAAA69D
BC7058C3
3C22E0A0
3CA2A8D7
BD5A9252
BCC72E93
BCCAA392
3CFF3BB5
3CBF9683
BD245BAF
3CB81012
BCF5F3A2
BCB6177F
BCE8C840
3CEBF4B0
3BC77FC6
3C5C2DFE
BCB1F5B1
BD328FF0
BC252696
BBDA38C6
BC65FCB4
3BF346DF
BA507B69
3C2B56C6
BCBB45BC
BBD2EC21
BC10CC2B
3CE6EA1A
3D150368
3CB239D9
3CA693E8
BC208424
3C1AB0C6
BD14A10C
3BA98A68
BC580D07
BC943B56
3CC82243
BCFF79C8
3CA42005
BC65A06E
3CB2FE24
BAAEA544
BC7602BC
BD08DB71
BCE47885
BC948D20
3C5EC878
3C956C79
BCDC2A38
BD0996B7
BC4CEDEF
3BC72D7C
BCBCBBDE
3D07E5F8
3B734D6A
3CD7536E
BBAD088C
BC27B261
3D28AF81
3CF2716C
BC05B9F4
BD2A32BF
3D55C330
BCB09884
BD3CB0C0
BCBE9E6C
BD80440D
BCA27CCD
3D17C0CC
3C939F4F
3C87EFB9
3D490BE3
BD07C89C
BCF364B1
3CE05575
3D4B99FD
3CC6BC12
BCB74A85
BC476585
BD0CD59C
3C880E57
3B0E5B22
BD3E779F
BD0C1609
3B13DD42
3C86D648
BC3B0D1C
BC617A6E
BCC001AD
3CEFBE9F
BD160ACF
BB56BA36
BC428FC8
BD0967D8
BBEFA43D
3BDF573E
3C863498
3B77540A
BCA883E2
BCA68FB7
3C42DFE4
BCA7F28D
3C297544
3C84ED3A
BB826307
BC98325C
3C802C0A
3B873E63
3CAB9FC1
3BC2CF73
3C80C415
3CE0F7FD
BBF318D1
3B8D80C7
3D295A87
BD1882C9
3CF7D193
BB544592
BD626A73
BD28E4C6
BCFA4BC1
3D1E3E44
BCEA927B
3CF1F8A1
BC831AD2
BB087C91
3C02FE57
3ACD32CE
3C2D022C
BCA859F1
BD33BC0A
BCCEB82A
3AA9CE1A
3D066971
3CE0B440
BC6C0C99
3CC75E2E
3C138B8E
3C9136F5
3CA191EB
3C45DBAC
3D1E0752
BCD511E0
3C277CB1
3B6AEBC7
3C7183D1
BD047C4C
BCBCC187
BCC82FAF
3C9CC2E4
3750DAC2
3CA29739
3CDC93EA
BD0C7A2C
BCAEFFFD
BAA521E3
39F7BB7D
3A41022D
BB814692
BCF2943C
BBE1E8FE
3C8ED07D
BC079931
3AB42C42
3DB0C39D
3CDBA909
3CB83424
3C47C01E
BD3F9C63
BD369030
3BDD4830
BD130DDF
3AF8223B
3C2EDBB6
3C2AE07E
BC2373B8
3B7B5FB2
3D561474
3CCDC840
BCCD13AF
BD0B7620
BC00AF93
3D8F93C9
3C7D61C0
BB5A19BC
3BAACA19
3D8DA280
BAF9FDB2
3D22FD91
3D826D63
3D0CF115
3C551068
3C424159
BD9B0D01
3CAD4FC4
BCB57F3E
BC756283
BC76FD22
3BF56DC0
BD320A8F
BCB37F89
3B077CE1
3D3F90DA
3D00AE61
3C8C4919
3BD7D640
3CFD0112
3D45F8D3
3D1294DD
3CF27F44
3CC8387E
3B5289D0
3CFEA1C7
3CE1FF64
3CCA6FFB
3C309E99
BBE53CDB
BC7AAAC1
BC055BBF
3BCE1663
3C97650C
3ADDB857
3CD7FE8F
3D37E7CE
3C48D485
3D09340C
3C65AEB1
BD339F9F
3D0E7310
3D0B1954
BCC8018C
3CD4F5FC
BC7A61C6
BCBD2BA5
BCD2666A
3C8F49B4
BD61A3DA
3BFCE605
3A61FAEE
BCF51EC6
BCBBA7AC
BC9409A2
3CB14842
3CEB77B3
BC767176
3CAEA606
3C478565
3CF9FECA
3B451DAC
3D3CF986
3BD7FA93
BC01EB9D
BD3C621B
BD0434C8
3CCD7E38
3CC8D196
39648A0B
BD0403EB
BB2E74C8
BC2FA5E0
3AC3D659
BCFEB116
3C82253E
39F43615
3CC13B69
3CC0796D
BC974059
BCE6BEB1
BBA7CCF9
3C87E3FA
BCD9A91E
BBE1018D
3C4C3A6B
3CF28B02
BC41970F
3CA8042B
BC837E6F
3BB78FE4
BC8294D0
3CC24C0B
39EACABA
3CB31C22
3C46AEA6
BCB4FDA3
3CDBD838
3BBFF208
3D2389DD
BC6F0DD5
BCC52F14
3BFD09D6
BC83CEF7
BCC2C1B1
3CE2B105
3C43A9A3
BD006240
3C960957
BC811F85
3CF71002
BBB5FA8E
BC91093D
3B476D67
BC157D35
3C82E664
3CE3F218
3CE04189
3CD50805
3C029F62
BBEC69F6
BCAD2100
3CD0D280
3AD34867
3BD11CA8
BCD5208E
BC1F8744
3CE5F776
3AC8C907
3D208CB8
BC9EA67F
BC6AFDA5
BCCCE083
BD02282E
BC9B88F3
3D0D17E1
3D2EC489
BB305BFE
BCF27F0E
3BE936BB
3D1B60FF
3D3A899E
BCF9603E
3BB015B2
BCD794DD
3C6B5690
3D84232B
3CF256CA
3CEDFE0A
BB4A049B
BCF48909
BCF1787E
3BABEDC5
BC41EE4C
3B800D16
BCE7BBD1
3C0242DB
BC627759
BC597628
BAEDBA02
3BF3C7F9
BD00FA9C
3CD2E184
BB83240C
BD0470F9
BC0BE978
BB1D825C
3D0946B6
3C6E52C4
BCF40952
BCA17A39
BC714CDF
3B8B2812
BC77D376
BC0549F7
BCBBA37A
3C35D321
BCC2066A
BCED4A51
3B440DE1
3C0D9B8A
3D4236C1
BB96FAD9
BCBFFD7C
3CBC2367
BB0AF2B8
3B6424AD
3D173F4C
3C4BDC77
BD0AC2EC
BCD025B2
BCCBE7CA
BCF1C037
3C995216
3C95BD6C
BC66C318
BD319843
3C871858
BCC5E04A
3D15926E
3C8AD28C
BC1BAF7E
3CD54394
3CF25298
BCC2BFCE
BC55B3FC
BD37551C
3CC4000A
BB92D59B
3B9795F4
3C434B44
BD0001E3
BB87DA14
BB07A9D8
3C3CC07B
3C7C04C9
3CE7D821
BB6DD505
3B8019D6
BCB406CD
3D482B2D
BB228424
3D0A407B
3B95A401
BBDEB0FB
BBD2E8C6
BC4205C9
3CB3E143
BD46E470
BCD39AE7
BCC29FED
BC9A023F
3C72E855
BC9EB9CA
3C7A8C23
BC97B95A
BC85139B
3AB7CB5E
3CEAF110
3C81D2D3
BCCD7823
BD020239
3C2EC220
3C58F712
3C50DA79
BC82462B
BCA50BBE
BCACE7C0
BD325FB4
BC985E66
BC945F33
3C2C0542
3C3E6F3C
BD16E9D7
BCCA9550
BC2A4188
3C44ED04
3CE73DC7
3CB81692
3CEAA2D6
BCD316FE
BC639B45
3C5E3B1F
3AC525E4
3CB7D8B4
BC810690
BC23497B
3B9698F4
BCF5F550
BCFD50F9
3CD0C2FC
BC82235B
3D03B2A8
BC78E707
3CAB7E9E
3C4B12B8
3C9B134C
3B1FCC0E
BCF9A2EF
3D5535A2
BB996C8E
3C1008AC
BC4EF383
3C97DC60
3C1586B0
BCF9389B
3D4986AC
3AA8BFA7
3C6BAB4A
3C59D41C
BC011F1A
3D496C0A
3C9171AD
BD0F515C
3C10ADE3
3CEF48F9
BB3A4388
3D0FA4D4
BCD5EEEA
BB9CD7BD
3B887585
3CECA32C
3C779208
BCA80827
BC833143
BABED33A
39E0263D
BCE07449
BC857A28
BD057703
BD0B9793
3BC43234
BA348956
BCA5F69F
3D1A15DB
B9494D2A
3CA5F12B
3C5BABF8
3B8ED937
3CDEDE12
3C525AAB
3B85E8F8
3C1BAB4C
BAE1BAC6
3CA44234
3AC7E486
3C8C5B8E
3D6795F6
3D0BD322
3CC5B185
3CB46D90
BCD45268
BC90AFE6
3C09DC62
3AA83CCB
BCFFC222
3D0E5797
3C1BB9D0
BAF58E8D
3D129CD6
3CD06FBA
3D431198
BCFB2895
BD0CC2BC
3CFC44BF
3BBAC19D
3CE991FF
BC28ABF1
BC854011
3C3BA70B
BC8CE521
BC861C0E
3DA00D94
3C88CD64
3CB9533E
BCC16BDB
BD93CC4B
BC2DFA0E
3CBA5531
BD808008
3CD1AEB4
BBCFB9D2
3C2FDDA9
3D142DEA
BC1CF0DC
3CBF36E2
BBE67B5F
3D00828C
BD33FCF2
3CF9E27A
3D9E136E
3D594B60
3CA9EC2D
3CD0F18A
BBE303F1
BB736DA0
3C148EF9
BD039D5E
BBDBAC0E
3C960FA1
3C741439
BA85DE26
BCCFEA59
3BB73409
3D0AC860
3BFCED26
BB1E9354
3D20F1E8
BC6E84AD
3C5877FC
BD4BFF12
3CAF77BD
BC6FB88A
BC094A4C
3BBCC599
BBE5F552
3C0BCCD2
BC8677B4
3B9C836E
BD0F0DBA
BCAD6ECE
3D009B16
BC48076B
3C285660
BC987619
BC7445B8
3C92D9C2
3CC6DCFE
BBF03C69
3CCCA636
3D0442D5
3BFEA334
3D0093D9
BCC3E4FC
3C688087
BCE19C32
BC235321
3D0702D9
BA7CAA7A
BCF1D48E
BCC5F64F
3C135425
3C668BBB
BC04F37A
3CEEA19E
BC7129A3
3D038236
BC63CFB3
BCFB62E2
BD078961
BC93EDF4
BCAE84AD
3CEE1CA9
3CDA43E4
3C5A03ED
BC621965
BCAB15C3
3D05C9A3
3BA12B33
BCE6F71A
3D02B76A
BCEBF049
3C6BA494
3C7B0051
3C6D9C50
3CEA058D
3C32689D
BCD83185
3CF0D9F2
3C89FE87
BD0A9C8C
BCCF9782
BBFFF3C1
BBE70ED8
3B809592
BCF549C4
BD22E481
3C1A12B1
3CB69CE0
BCACC342
3CF09778
BCB1634F
3D145084
3C23C56D
BC48C0CF
3C4C6CC0
3C6178C1
3C0E5269
BD00483F
BCC0B715
BAEC8C05
BC727426
3C78868F
3CF0534F
3C8D6C2F
BC362124
3B2F5974
3D8D279B
BC3B84A6
3C0B6FD5
3C03D27D
BCCB9CB7
3B9F959D
3C5CF829
BD583F41
3C87F6DA
BABF9887
BCBE11B4
BAA6E633
3B0CAB75
3D626C8C
3BA00229
BCAD7691
3C6AC7F5
3C274701
3D3BCEC8
BA80224F
BC93D02C
3CAAAF6C
BCAB0136
3CC7E506
BD0E85F0
3CA96EC4
3AF4EACE
BB35EA32
BC9FF640
3BCDAC05
3CB975A2
3C6A9245
BC9D6ADF
BCAAD6A3
BC6C6C3A
3CE53A4C
BB977E0B
B825265F
BC2975B0
BCBB6A6F
BC2569B1
BCA98A73
BC966608
BBB2FA94
BCE76C56
3BE74284
3C4E3F28
BC4E1826
3C7F77AF
3C8C3C84
BC82319E
3CB4CC90
3BA171C0
3D025FC1
3CB60FBC
3C4765F0
3CC218DF
3CA53FC0
BC9E2F2B
BB511D3E
3CB9713B
BD11EF81
BC89008F
3B557364
3B9F565D
BCC91695
3C8EEEE6
BCC06368
BD30BEE5
BD473AF2
3CC3BE30
3B60DBCD
BBFC2515
BD0DFA29
3B6FF7CA
3D11E7DA
BC8C1D7A
BC5904E9
BAC44E79
3C862182
BD1DF945
3C4BF826
3CB72459
3C9CEABD
3C12F0BE
3CE13DD3
3CAA39C5
BD1DA08F
BB865ACE
BCF0D987
BCDF2600
BD0BE257
BCF08AE2
3BCF3F6E
3CEDCF10
BC838FD7
39CD1185
3C4E8CC0
3C5DC543
3C86E562
3C64946A
BC19AE47
3C3E0660
BCF0450C
BC79A64A
3C5BAF53
BC91A28A
BB9FC3C0
BD4254A4
BBE5EB97
3BFC52F7
3BEA174B
3CE6F3BF
BC220B43
3C45605C
3C900B10
BC77A04B
BB9F5EEB
3C7CDB1D
B980C356
3C27F5E8
BC12E179
3CF52A19
3B3AB096
3CECB139
BC181250
3C467748
3CCCC1AF
BB3F9F93
BC94BB43
BC81403C
3CE30EF9
BCA6E074
3C9FB4D1
BCBBB8A8
BCEE7488
3CA32493
3C9AB9F5
3C8E34E2
3CAA6CBB
BC843519
BCDE4DC9
3CD53EF7
3C40ED30
3CA0AE97
3C828FC8
3CF8E3AC
3C4DA829
3C4E4141
3B9F357A
BBF0E8E1
BC8AB0FE
BACD31CD
BBF62002
BB05DEA7
3C8E56DB
BC6A103F
BBCE3F53
BCB24313
BA539FC7
3D2432CA
B9F376D2
BC2D1F1D
BCED934C
BB11F70E
3CDED2BE
3CA67C00
BD0AA78E
BCC920DB
3CA5E064
BBBBE081
3CE38A13
3C93EFA1
3CAD6AD2
BBA57B24
BA3E8CA1
3CA887A9
3D037B80
BD00F50D
BD7FF010
BCA5C5C2
3C5FE401
BD1CF47D
BCC0940F
BCE12839
BC2F0B1B
3C64DC8E
3D05A6EE
3D71C3C7
3CFD18FB
BC8D26C5
BC0FCE34
BC1BC11C
3A073B73
3B150434
BCAF1D5A
3CCED6FE
3C2C471B
3CC8F38F
3C874A0C
3CF85C9E
BC343816
3C073508
3CE23CD6
BC479987
BCFA50C9
BAA8F908
BCDC62A2
BCF5441A
BC761749
3CAC7AB2
3D0BB9C2
3CA55E94
3D096EDF
BC4C9504
BC70F1DB
BCD2490E
3C4C56F1
3D394C37
3BE830D6
BCC4A4AA
3CEFDEB5
3C4B56AB
BBB8E5D0
3C94BFAB
3D1F8BEC
3CDDA9CA
3D40E22E
3BF31FB2
BCA547EE
BCBEF4D3
3BD7D529
BD63373D
BCA1CE1C
3D5663F0
3C7C8521
3B1CBE3C
BB0EFF62
3D54A0D7
BB879EF0
BCF38279
BD06263A
BCE1BC48
3CFE2FB1
3A08DE02
3C668C91
3B68C1F6
BCFE45B6
3D130A9F
3CE93C04
BD31282C
BD357024
BC9175A9
3CB61134
BC5018B2
3BE6A09E
BCA254F4
B909133A
BA170D78
BB49E5BD
BC700FC8
BAA04C10
3A92BB2E
BD271FCA
BC95AAC2
BB2ED139
3BECEA4F
BCB6A0A6
BCBAD04B
3C8C4E22
BC13DF7B
3B273EF4
BD3A92BE
3D045621
BBD5B3D1
BB6FAF25
BC579D0A
3CA0F6F1
3C1A3987
3AD4C4E9
BC6D39BF
BC863539
3D24AEBB
BB9F5240
BCE699C8
3CC67A38
BCDAB8B3
BC73F672
BB5BE56F
BCBD6F97
BCBD00A7
BAB3EF86
BCEF0A44
BCB72DC9
BD3AB126
BC9A2072
BCF4BF90
3C8EF77F
BC0ED63C
BCD6FA4D
BC35A5D4
3C30FD63
BCC3A902
BD02C55D
3B7D4C1C
BC2CFC4D
3C9C8A45
3CDB87B0
3CCD65AF
BABC82FE
BB400E78
BCF867F1
3C2CCA63
BCF7CC1F
3B216845
BC750276
BC790CC7
BCE5D653
BCD83EBB
3C2A4FCA
BC867F76
BC933094
BC5BB095
BCA72325
3CC9B266
3B847CD2
BCC72558
BA587B5F
BB499082
BCF2A610
BC73EB1F
3C5A0DFE
BAD98FA9
3D1A45AC
3C9A3825
3CA57AE4
BC346207
BD2452C6
BC396511
BC2F181B
BB83F644
3ACA87A3
BC49B9F3
3CFBEE8E
BB2EEC92
BC3D4647
BBA49018
3CCE6879
BC7DF422
3BA4F7DC
396C7FBD
BB8EF073
3CEFE1A5
BCA6C59C
3B34C772
BD460FE4
3CDD4662
3C34E5BB
BB008B2B
BB641FA5
BC4E4431
BC93D966
BB579A30
3CDAA278
BBC12F75
3CA9D51B
BC686976
BC93CB8F
3D51BB13
3CD1F927
3971AE9D
3CA01D0C
BCC55971
BC797827
3CCA6366
BC8ED3A3
3C1058A8
BC63C826
BB68DC78
BC9989DF
3CBD987C
3B9E4550
BC61705D
BCDF15DA
BC9E393C
3CBCF986
BD0C20A0
BCD97BD2
3C4A7D67
3CE95A01
BCF40FD2
3C43632C
3C9F5A6E
BCF52F57
BCC3EA3B
BCDB2F66
3CFFFA56
BD52F896
BC8FB077
BCA2F9CA
BCE2CBA7
BCC56AA3
3B132F72
BB7F677F
3D5EFB1D
3B46406C
BBFFE5BE
3C845316
3AF1383C
3C5CC8C3
3D502BC7
BCB9F087
3CBA6E25
BC134E5C
3C57FF9B
BCA929C5
3BC03A6D
3CC894FA
BBF2799A
BC25F8B8
3CB2452C
BAFAEDF2
3B13DAE9
BCFEC786
3C3085DA
BC961A89
BC688DF3
3C6E3568
BC8BF0CF
BD283C7A
BC9F26D7
BA6DB8DE
3CCC715D
3D1CB974
BA2F4699
3C567CE4
BD10DC5C
BC8D05D8
3CFDAEED
3B252FA5
3C35B8B4
BC3DF52E
BC8C6965
3C9F7ABA
BC80A908
BCF29A51
BC762F9D
BC190B95
BB1B5586
BBBF259A
BC72A67B
3C09114C
BD099723
BD063CFB
3B3F0666
3D4C3090
BBF7AC5F
BC22A546
3C379ED3
3C69171B
BD2DD774
BB9E7271
3D0C5111
BC1DA807
3BCBCD1D
BC449C7D
3C661573
3CFB59A8
BBBC6206
BC019658
3C000EC4
3CA86F1F
3CD335D2
BCC209C5
BD00C24D
3D242C14
3C7D581A
3CA5501C
3C3D2524
BD84FA70
3BB810FE
3CDC527C
3A0DBBC0
B9D81682
BCDF2F3B
BD021519
3D00D37F
3CBBE7A2
3D016EB0
3C8F718D
BC93FC01
3CB39A97
BB99A66F
3B60BD70
BC26DB36
3C455864
BCC02448
3C6D923F
3C685CE1
3D3E05BF
3CC07901
BC8CE231
3D1787A6
3AAAF308
BC1E5EA5
BCB58CDF
BD051DC7
BBFF6B45
BD0B0E00
3D21ADD0
3AD64013
3CAE14E6
BC2BAAA9
3AFCB3F0
3D100FFE
3C809A5A
BD10BC7B
3B8F0C78
3D54DF05
BBF9872B
3CE3FEE3
BC9988D3
3D1B7FD3
BBB60408
3CDD23FD
3D4B1D50
3D666CCC
3B9FC7B1
3C04837D
B9CA21C4
3C180672
BCDEDB58
BCF4D021
3CB2FC0B
BA28D109
BCE8169F
BB9BD70C
BC5A1017
3D858B32
BBCFDE90
BB69F34E
3CB58695
3C1F18BF
3BE4770D
3D4B525E
BC175567
3CC261A4
3BDC2977
BCB29366
3BBAF7E3
3CBEBE82
3D025C81
BC652AFD
BCA4F97F
BC738C54
BC37711B
BAF560EB
BCF9D75C
3B31ED23
BC369263
BCE91CC4
3CD6D8BF
3CB7C99B
3CF4FE44
3CB38F0E
3C9A89EF
3C10859F
BBB72358
3C930850
3CD9F82E
3CE85B69
BBAE662F
3D342048
BB83EDF6
3CE29E5B
3D636489
3CE29BA1
3D568167
BCA8A937
BD1DA5CE
BCF6E13E
BC9DD0CB
3CB35420
3CCE9C10
3D40FF39
B9BA6539
BBCFBB7F
3CC58A4E
BC85E588
BC1E224A
3B407DDF
3BFE1920
3CA2CA65
3BEF4BFE
BB241370
3CF0F99D
3AC21E1D
3C7E2103
B7E058BB
3C2D8BBF
BA67B8D0
BCFDF2AA
3CE54EDA
3BF15416
3A14E439
BBD846A9
3D061416
3D0D9AA3
BC39416A
3CB4BEEF
BC90203E
BC3CC807
3D079AE4
BCB9C4E8
BCB3EDD9
BC31C865
3CE3E6FA
3D0768C5
BD1441F1
BB9B9B3C
BCEB7316
3C9E4459
BC988EA2
3CA10A71
3BD6D031
BA20C9D3
BCF59C64
3B0BD662
3BF15314
3CBB9D2F
BCF2720D
3C9CE0E1
3D418083
3D0D1F6E
3CFC829D
3CC735B4
BC0946FC
3CAB8A93
BCC97F05
BBC2BF6D
3BC00CCB
BD055AE9
BCF0BA12
BD41B160
BC4AE8C7
3C361A6E
BC3513DE
3CDE43EE
3BEBAEE5
BCE7D999
3AB5E82F
3C2DD0F4
3CD3433E
3D02CCB4
BCFF61E0
3CABC4AA
BCE500A0
BC31D92B
B9C8E389
3C50C5EB
3D06B251
BA86DC28
BB8BD15A
BBD02506
BA984F98
3CDA7349
3C0B064E
BBD1C8CB
3C9AAE6D
3A828748
3C9F6124
3CD5995A
BAF71677
BC843519
3CEA6132
3D070817
BC91AAB8
3CCEAABE
3CDEECF5
BCC8DB3B
3C325E8C
3CEB4FA5
BD198542
BC9E87E0
BA0F7701
3C8E6122
BD0F7879
BBF92BD0
3D24F243
3BE8B87B
3C65F5FE
3BD1B819
BD059AA9
3D3DC868
3D00AD8A
BD05762C
3BDD6DDA
3A397650
BC5426C9
BA9769BF
3D0947DD
3CD383A0
3D0CBD12
3CA91E3C
BD4CAB3F
BD266C10
3CABAD98
BD297C66
BB01EED8
BC26A3D9
3C5031DC
BCCAEAAA
BCF7E6C1
3C879159
3D0AC91C
BCD9988D
3CC917D7
3CF3EB54
BB8C33C0
3CF9F707
3D04E64E
3CBF2A17
BB05EB67
BBFDA181
37CB5EF3
BB983759
3B3BCF79
3C603AD3
3CBDADAB
3D237429
BB4F7096
BCD425BC
BC98478A
BBEB00BF
3CD9186A
BBE8AE6A
3CC15677
BCC404A7
3C99018E
BC16C70C
BAD3A9B6
BD0BC9CD
BCE649E1
BCCBE511
BCE432AF
3D0588BB
3C9F3189
BD875877
3CB68421
3CB5A716
BCFF27FE
BCD51937
BC9CC568
3C96DB44
3D9FDF99
BC4E2669
3CDB4063
3D92189C
3D21B98E
3C14E7B9
3D56A1CD
BB9B8E26
BC6801DC
BCEFCF9C
BC9064D2
3CA8C76A
BB032940
BC5484BD
BD98BE3D
BD60D4A7
3C3F9328
BCFBED16
3C881685
3C35E7AE
3C6B0384
3C78A3EB
3C99AC44
3C0898C0
BC52B0A7
BCDB9446
3CA12F5A
3C02B2CD
BCFA9DF6
3C945B01
3CE2192F
3D11390D
BD16D549
3C67C50B
3CF71434
3B61CC8E
BD04C313
BC4E06F4
3BAB60AC
BB25A972
3D0E79AB
3CE2BE06
BCBBF976
BCB0A295
BD56F0A8
BD168A35
BD410518
BC9B64AB
BB5F14CE
BD01011C
3D87343C
3B00FD6B
BB7C45B6
3CA82AF7
3CA5EBB7
BC30941D
3CAD3BA2
BA7150A9
BD3C4B75
3A8C109A
BC960E95
3B90A905
3C935D3F
BC80E065
BCCD887F
BD283DA1
3B8A8A07
BC030E52
3D6F733B
BC1CC9A5
BC7F7023
3CE46AAE
BB3CB8AE
BBB0D87A
BCD5520C
BC533094
BC5696E6
3A2E313C
BC8544E3
3C858D3D
3BDAACDF
BCC5F0A5
3CF603C8
3CF45F18
3D4E95C5
3CBD3911
BBA033BD
BC843CA6
3C741652
3BD43F1C
3D5B7DD5
BC531693
3C890852
3C8D39DA
3C77E0E2
3CC607EC
3D6A8B59
3CF503EE
BC13E321
3B2E3BE8
BCAC00A4
BCC1DE5C
3CA21061
BCBA45AC
BD0E6AE2
3C99B2C4
3CDED03A
3C0DA5F0
3D3F5F26
3D267E6A
3D1B96CA
3B9ACEE3
BC84AA1E
BCE821F3
3D8AA34F
3D056CBC
3D0D382D
3CC33EE4
3CAB0E36
3C9B485B
3D0A2446
3D8F70A9
3CB9A939
BCAD5F7F
3B675768
BD3A1067
3D1D2C61
BCA3835D
BD77BB08
BC098A0D
BCA6EA50
BCB30800
BC02FEEE
3C88022D
3D46A6E3
BA7D0727
BCE2046C
3CA5AD6E
BBB3FA83
3D1AD13D
3C8D8FA0
BCC2E8E9
BCBAA2FF
3D0E2BC2
3D0F20D0
3CCEB6B2
3D6031CF
3CCD5411
3C55ADB1
BC96A345
BBD834B5
3CA1D96F
BCCA1DC6
BC07417D
3B90F3C3
3CFF5368
BBAC81FF
BC0E44C7
3B8AACED
BC53FB95
3CBF6068
3C03A028
3B197AE6
BC19DABD
3D1D607E
3C7B5FF3
3CDBDB93
3CAEF947
3C71BE1E
3C7F1AFE
3D57BB23
BC037D02
BC2D5BEE
BC0BD8B1
BBB74567
BCEC12AE
BD291304
BCA35E74
BC491A25
3C1F8C17
3C589F69
BC9EC446
BCF4242A
BD0A4A71
BD20C3C5
3D1EFD00
BC6B7B0E
BBA2D705
3D02A61D
3CBDBEA7
3CDB2C41
BCE0BEF2
3CA4811E
BD2F20EA
3C3BA4F2
3C4ADDDF
BD08EF42
3BD5955E
3CCA06EA
3C968DE1
3C77461D
3C939000
BB60DEA8
BB42D24D
BC83D288
3D06DEAC
B8A15363
3C8BEC9D
BC9DF57F
BD59B2FA
3CAC35E9
3D0905E8
BD04BEAC
BC573A79
BC1D549A
BA01E3A3
BCC9AF41
3CCBFBEC
3BA0DCEF
3BC8001F
3B4CA78E
BC28C65D
BD0DE185
BC570D2D
BCDF98B7
3CCCEE90
BC2AD23C
BCBD9374
BC8074D0
BC879124
3CEC33D0
3CA445C5
BABD449A
3CBA2B3F
BCE66D52
3CE943FC
3C8CE9BE
BC89539C
3D03B32E
BCBBF112
BCD783AA
BCA2A943
3CBBAFD9
3CA9EA14
BA26FB9C
BB2A0C03
3B8B0ED2
BCF36DEC
BC242792
BC9AB3AB
3BE8B02D
3C618D4E
BC8CF689
3A82393C
3C2603A0
BBEDAE44
3BE03184
BD044EE4
BD07C973
3BD9410F
BC5CA6CA
BB26BD99
3C9B74D1
3C7B1E19
BC175F58
BCC7DF27
BCB46562
BCD7AD30
3CF56FB9
BD0DB8F0
3CF2E997
3D324D75
3C58DC3A
3CFCA71B
3CEF7B4D
BD505518
BCEC3D40
BBF95886
BD3A8F7E
3AF3699A
BCBA6704
BB43712E
3C28BF3C
BC8C9504
3C632E38
BB0D5F4F
BC8FB9E7
3C2AF5E2
BBCCC454
3D7D48CB
3D6E0800
BCBEA268
BC8AF0BF
3D002123
BC2ADB76
BC8DDF1C
3B5D6271
3C48D84C
3CF5989E
3C94222C
BD043061
BB0822FA
3CD22CBE
BD1BE1A8
BAB1D3A2
BB1A3B55
BC148F4E
BCC803DB
3C34C498
3CF980F5
BC7EAF9E
BC075B13
BC07477D
3CD8789D
B9F83267
BC2FCC76
BC4DF2D2
3AF6A40C
3CF26909
BCC0EF7F
3CA51090
BCCB545C
BB5E9B81
BCB36736
BCCD8F6A
3D092E62
BCF51EC6
3B1F0945
3CC98B64
3CFD2F35
3CAAEF2C
3C5EB4C1
BD04EE97
BCC0FECE
3C1ACCC0
BCEB04C6
3B4F068E
3CFF05CF
BC975339
3C79D61A
BC54FD88
BC18D9E1
BCB69FCF
BD4B02C8
BC9806BD
BC209973
BD567085
BD4EF622
BBB1FB7B
3CF8F183
3D23EC1E
BC58DA8D
BC3DB6AF
3D621569
3D01E131
3CC7442C
3D60F8B9
3ABC7B46
BD11B4FE
BD3A871A
3CD8DB2E
BC2022C0
3D1D9034
BCDD9B87
BD96B675
BCD4EF7B
BCB870C0
3C107C9A
BC3D2B04
3C96575A
3CD8FB0E
3D1CB93E
B9B582D9
3C91A071
BC9A81C1
BD3D6B81
BB3D59BD
BC96CE0D
BD3EAD35
BCC630D1
3C3D7BF7
3CB8883C
3C99CC90
BBA6B48A
3CD1D3D2
BC63A9F4
3D09B358
BCE7100F
3CCFA69C
3D5FBA2A
3C5C358B
BBF6964A
BC315E47
BB42FFC4
BACF784E
3C8641CE
3D13FC87
3C6FFACF
3CF588E3
BCF323AE
BD568181
BD06B0BE
3BFEAE06
BD148EB3
3CD62CFE
3BC6BB7B
3C06A7BA
BD39C6B0
BCC54809
3D18DBB4
3D10ED58
3BE41A9C
BC575262
3C97E854
3CA0F32A
3D088906
BC343450
BCC90CB9
3D40AFBE
3CCF45B8
3B928CE0
3C7B55E2
3C159BA8
B993D28E
3D05648E
BD7AE75D
3D182393
3D04DB4C
BC9CA410
3CE139D7
BCFF1E23
3BD3C92B
3D0B5EA3
3B80DA70
3CC73797
BCE67763
3C5B6AF5
BCEF8B08
BC5AE600
3D470238
3D17CA21
3BA664C4
BC8AD03E
3C44AEF1
BBF72220
3CD0EA69
3CE2CFA3
3BAF31B1
3C8CFDE0
BCD69BEE
BD5B3977
BD03AE76
3BDDDD56
BD5605AB
3B5A1535
BC962109
BD297B8F
BC98892E
BC918CF0
3CE09BB7
3C3FDD66
3C69DA24
BCC33BF5
BCFC9EED
3D567507
3C5C054F
BC8C4E22
3CE88590
3C9AB771
BC9D7E2B
3BFB07DE
3D6438AA
3D10C6C2
BC9B86A4
BAC8127E
BD238038
3D10C290
3A252FB6
BD218281
BCDC88CD
3B99ED51
BCEE3E01
3D46BF01
3D0A9428
3D0B4C9A
3C3C792D
3CE908A2
BB46FBA8
BC47F639
3BB05197
3D32E042
3CCF14A6
3C8C5D06
3D0FCE74
3D40251F
3D38EEC9
3D5F3C3B
BC704A15
3D17EC50
3C998AB6
BD41AD2F
3CD8D36B
BCA3E2C9
3C49C836
BCD5B509
BC002C35
BCF14B67
3C928431
3CD02364
3CDE44C4
B92DD580
BC66FD65
3C882716
BC520876
BC552A69
3AFEE09B
3D0F4B47
BB3BD5AF
3C2B5E53
BC9464A6
3CB43BA7
BCBF2A83
BBBDC299
3D11460E
BC0053B8
3BE9F669
BB7E6C82
BC5111D6
3D4B5E53
3C3D131B
BC25474D
3CB57CEF
3BAA77CE
3C7757BB
3C1C6F37
3C346349
BD029465
3B3C1418
BAB7C803
3C913364
3CFCB70B
3CB5C8A4
3D097BDF
3AEB8199
BC1DA9DF
3BEE8A8D
BD1EAC0D
BC08404B
3CD7A5A4
BC0CACB7
3D263AC7
BCD11C52
3D070AEC
3CF0714C
3C1EB329
BBB8184A
3CC870E8
BC9BE645
BC1EC82D
BD29F567
3C6A832C
BC7806A2
3CA1D5A8
3C9D0D21
BC6AAFA1
BD018F4C
3C81B4D6
3C0E8F2F
3CA47601
BCC32808
BC36E5DB
3C483086
3CB62EFC
3CB5A2E5
3C11EA23
3CAA6605
3CDFFC54
BC7FE020
BB6C0BAC
3CF68604
BCC32336
3CC5D3B4
BBF90423
BCF049DF
3C5FF16D
BC94FF00
391AD392
3C609785
3C883813
BCDC18D0
3CA9C744
BBC0D6F5
BA47976A
BC659D7E
3C6CCDF4
3C22B1E6
3D23B547
BB79A141
BC60FAED
3CD6DDC8
BD0E41C7
BA89EBA7
BC97CCDB
3BE1E25E
3CF0F5D7
BB920439
BC77BB23
3CCEB53A
3C1E7C02
3C2175FC
BC3984F1
BC456BAF
3CB2D575
3C599609
3B6FF8F7
3CAA9BB5
BB82B897
BB0BD1DB
3D0C1151
BCFB6A6F
3BE5D2AD
3D5ACE17
3B99E59A
3CAF4491
3AEF3024
BC56CD01
BCB6F7AE
B8D68F43
BCF1C758
3B915AF1
3CCEAA52
BCB65775
BA41BCE0
BD0023DC
3C488AB3
3B419E70
BCF76E2B
3CB3A839
BBF6B569
3CC0A110
3D80D109
3C338350
3B2944DD
3CC11757
BC3DD8A9
3D15C275
BB9F293B
BC0753C7
3D283C44
BAB55D44
3BD10642
BB61EF1E
3CA598AB
3C07BCEE
3CC9F913
3CE5526A
3D03227A
BCF7333D
BC6178C1
BCA06C1C
BCAF0F82
3C99E2CA
BCF7B61A
3C5EFCE6
BB77901A
BCAE11F7
BC860BB3
BA4664CB
3BB12694
BCF5921E
BCB4524D
BC8DEADA
3D00D81D
3CC419D6
BC4A1929
3CE700F6
BCC78FAC
BC0916D5
BD168B27
BC88BEB6
BC2D3416
BCD409D8
BC811E79
3C0F9676
3C5AB706
3C339F6A
3B447F20
BCFFB04F
3C97FAFE
BBF46FBE
3C96F9E2
BBBA8AAB
BCA5F55D
BCA8D541
BCDFEFBF
3C02C75B
BD63F01A
BB0A9F56
3BC8814E
BD076626
3D6DB3CD
3CB9F3AC
3A10E1EE
3D98E6B7
BCA1E5CE
BC573358
3D06EB26
BC4350B8
BCAE7020
BD8BA832
BCF7DE5E
3BCD8B8F
BC91F271
3D010EA3
BCDA129B
BD3D27F9
3C23AF92
BC24C6F4
3D3AF4FE
3CA698BB
BC54F9C2
3CB540F5
3BD964CB
3C3556FA
3CDD868E
3C2F8E63
BB10F42F
BC09EED7
BD125CDF
3CB8EDF3
BBBDADB6
3CBDFA37
BCFC8B36
BC662208
3D30574B
BC54EBEB
3C677C10
3CCB7DAD
BCB9346A
3D64E5FE
3CC5C09F
3C98EA47
BD01D2EE
3CB22EBC
BCAFC413
3CC860C2
3C81A4E6
3D125F13
3D0FF0BE
BC45549E
BB72BA72
3B2E3C3E
3B3FBBED
BCF2C94B
3D4ACC92
3CF35FA9
3CD79FFA
BD548634
BD11A940
3D4104FE
3C9A8984
BCFC0534
3C867961
3D2C7C45
3D2A821F
BBFE7261
3C28CF98
BCAC339A
3D61C5B8
3D010294
BD1347C1
3CEC73FC
3D57FC0B
3BCC69BB
3CC962EB
BC8C4AC7
3D338731
3CC7A7CA
BD074A92
BCCB3695
3C12AA3C
BD5D4860
3C38E7A8
3C220254
3D288C46
3B19966A
BBF66A2A
3CE64AB8
BC988E37
3C8E29FA
3D05148C
BCF100BE
BCD23A5F
3D40D761
3C5EE569
3AA5F7A1
3D497D22
3D88070D
3CE79109
BC7C2D78
BC93ABAE
BC2ED8C6
BC20DE92
BDA23084
3CE026B1
3CA98D62
BC5EE427
3AA19E4B
3C7CC9EB
3D34A417
3C3E4D43
3CD21BF7
BD2A7E59
BC8A709C
3D5167EC
3D1619E8
BB21A5AD
3CB737A5
3D818EFC
3CAD15AD
BBDDEF49
3DB22CF3
3C3C7C1D
BC42755B
BC1DC87D
BD27192F
BB6F111A
3AB9B5EF
BD88AB50
BCBCBAD1
3C4EE46A
BD127CF5
3D001422
3CE99C10
3D6C44B2
3C1D5CBD
3D07D2E3
BC1D8603
3C714E21
3D2FCBA0
3B12603F
BC5DCFBF
BD030934
3D23A6E9
BC440B5D
3BD4B6FC
3D366765
3C10E698
3CCC480D
3C942D13
BD3EB8F3
BC80C085
BCAE4D1A
BC568837
BCDCC243
3C39A035
3BFEE289
3D1DE1FE
BCA0B623
BCC50D1B
BC153F2C
BC44E867
3AE0556B
3D023EEF
3C8B7910
3D07805D
BC95F27B
BA5A1716
BBD68548
3CC09BD2
3CD94AF5
BCAB54E3
BC4653A1
3CCF41F2
BC978E27
3D1FC90E
BC0538E4
BCF95CAE
3D8F1935
388C26FA
3B33AF44
BA2A6D38
BCBD1B14
BB94EF7B
BD7E817B
3D4179B2
3BDC001C
BC2F152C
BBF813CD
BD07DA6F
3CB07549
3C3749AE
BB38C960
BD4F0F4D
BC46A13A
3B1BDF44
3C4F05F8
3BB261E7
3CBE4078
BCF1EE24
BAA03E4E
3C5C966E
BBB03A85
BBEC9EE5
3C2EA1D4
3C5451FC
3A1F7551
3B020B33
BC468738
BD07140B
BBC210C7
3ADA3AC9
B97B0E6D
3B719EBE
BD5EABF2
BD3427F0
BCE9A54B
3C0E494F
BBBFBE31
BBF6C4C3
3C8B3D4B
BC5BD57E
B926089B
3C8E9B39
3947F72E
BBD24DEB
BCB6B096
3CEC6BCF
BC9083A6
3C84F8C3
3D01E72B
3B5ECED8
BCA84C1A
3CBA9451
BC5AED21
BD01EE82
3B66F415
BC1A4BD1
BBE2FFEA
3C44AD44
3C31E124
BC79B5CF
BC745B1C
3CD03AE1
3CBBC863
3CC5ED4A
3D00AC7E
BB9FF843
3D176BF8
BBDCB5F9
3C4F128D
BCA4BDF0
BC2A9352
3CC5091F
BD0C8CA1
BBC9DC58
BCB0DD18
3C9B00D8
BC4B9A32
BC03A1A0
BB042B48
3CA68322
3C480984
BCAC22D3
3CC90FA9
3C8457E9
3C7ED8B9
3C9F028F
3C549C3A
3AACD739
BD12CCF7
3CA65FE6
3D859E8B
3D02A6A3
3D093B2D
BD6FFB55
3BA90CFF
3CCC8E18
BD3E4D5E
3C4FDE65
3C8254A4
3C2B2B27
3CBA1C26
3BAA1CDF
3D9A9387
BB887F2B
BD0406C0
BCFDFF75
3C5C3E5A
3D95CEE1
3CEAAF36
BCD6F976
BCB6D3D2
3C096C7B
3CA65428
3D00ECFA
3C319462
3A812CB3
BC40A93D
BC47C1CB
3CA074B5
BCF814E5
3B5EC9FA
3C575EF7
BCD6861F
BCB94383
3CE277FA
3C8454C4
3CDD868E
3CC14149
3D0F6D5B
BC8A2EF8
3CBD0D72
BC234B1E
3CE0EF2E
3CA93914
BC3ADEF9
BB87E364
3D1B1B44
BD14F3AD
3CA340E2
3C8F454D
3CC03941
3D269073
3CD59593
3CE209E0
BC9EB562
3C38BDB7
BC521D03
3B606530
39CB4A63
BC91980E
3C7621C5
3B62B597
3A74E056
BC091C7F
3C1EF254
BCD4E85A
3C20E45C
BC54B132
3C8E3044
3BA12B49
BC26809D
BD407DB9
BB0029B1
3CAFDAEF
BD193632
BD449CE8
3C60CEE2
3BAA6C65
3D9CD530
BBA4C054
3CBFEE62
3D4C30AB
3D13165D
3C8D576C
3CE0E080
BC40598C
3CD72BCB
BD3E3F86
3CD026F4
3CE8A068
BC5FBDD6
BCBD4A0D
BD42B4CB
BD700516
3AA3796C
BCCBF5A2
3B92F40E
BCD2C16E
BC9C1C2B
3BD069BA
BA469EA4
BCAE6A77
3C85326F
BD267B44
3C944B11
BB097C40
BD7B0B54
BCEE7203
3B76A93F
3C4C2720
3B5C504D
BC067B19
3C21B796
3B89BCED
3C101023
BC84C4F6
BBCA58FF
BB60A2EE
3BDC01DE
3C9DC868
3D019FF8
3D01A3DA
BCBA0041
3CB838F7
3D0297DA
3D9991E5
3C6243C2
3CDFE50D
BCE19B91
BD263498
BC285EC4
BDA89E5C
3D51C87F
3C954BF7
BD27F4F7
BD531A8F
BCEDB90B
3D57D630
BB1E1B89
3D03225F
3D237840
3BAD5E72
3DA2A96B
3D8736CE
3CC21294
BCF524A5
3D6EA6DC
BBC7D4AB
BD0D52B4
3D6EE342
3CB41008
BD01BAEB
BBA4987B
BD82A887
BCC151DA
BCDA87D6
BDC2D227
BCFB38F1
3CEC93DD
BCDC01F4
3CFDDA20
3C981B4A
3D8E5D4E
3C9C135C
BCCC41F8
3C4A08CD
3C1F1422
3D7D66E3
3CF25EC2
3D003072
BCF80E9A
3D0E9B03
3BDBC868
3CC06DE4
3D5946F9
3D83661C
3D253402
BCF5BB38
BD37E59A
BB0CE5D7
BC3F7850
BD678240
BD0439B6
BC6DE332
BC8845EA
BC959528
3BDDD4B2
3D76C30B
BC9CB004
BBA12178
3C89CC9D
3BE67BB5
3D7C9405
3D8C457B
BCF952D2
3C8131C4
3D3335D2
3CCA94AE
3C75C656
3D68BB25
3B1203CE
3B0BB37D
3CAF9EBF
BD4A80DD
3CA1B69F
BC34FCCC
BC75FEF5
BA9759A3
3C9AD5DA
BD882DB1
3C0C3BA3
3D1ADC24
3CB200CE
BC629A29
BCE676C2
BBEF8EC4
BCED9D5D
3CE06749
3D4855DA
3C75E84F
BBBD4B3A
BBA0209C
3C2307F8
BCE83431
3D15673B
BC18DD26
BC93F6F8
BCD215AC
BD373B35
BCB1381C
3C0DD33D
BC9F028F
BC841BEE
B90DDA38
BCB56B52
3CF91B75
3A1F2AB1
3C39E138
3B15E7B3
BCB98776
BB9E3C81
BC61B0F5
BAF5207E
3C3762D8
3C8A5630
3A0EE239
BD57CD7C
3C47EF17
3C7C7608
BCC8F282
BCE5CCE3
3D297A4D
BBC29F62
3CB877E1
BC9D5EB6
BC538690
3D85CE9E
BC38C686
3BC7B19A
3CDBD076
3C8AFDC0
BD1E0C25
BD858A40
BB3A80F0
BD07FB26
BC475D21
B995DCEE
3BABE12F
BB84CC02
3D09E17B
BB0CF16B
BD8355E8
BAD52B96
3CEFE6AD
BD489BCB
BCCC800B
BC62F746
3C8BA550
3D472EFE
3D0CA37C
3C957548
3D6B2AD6
BC89B952
3C834CBC
BB4E8330
BB0B7EFA
BCC4563B
BCD157AC
BCD4405F
3CF0BB8A
BD06D4D1
3CDF7398
BD1937C5
BD5DFF90
3C6417D8
BD077001
3CFAE112
BCDFF60A
3CA64727
BD0A95BB
3C35C549
3CD0F9B8
3BBA51CB
B98B43B8
3B95E215
3CAB52CA
3A16147F
3C3D8ED7
BCE16144
BBAD68AE
BD21D2D3
3C85E51C
BCD54FF3
3CE5F98F
3B6C021C
3CDDE2D4
BCABF841
BCDA9F1D
3B684477
BC82EFD4
3AFEFFD0
BCB0B143
3C5BECFB
3B51561E
BC6584BF
BB3F7373
3B9F4657
3C1028F8
BD316AF7
3CB472CE
3C3E538D
3BC5C4DB
3C0278AB
3CA70528
3C47735C
BC3DC6A0
3BDE0AE3
BC564A8F
BB58C985
3C348E7D
BB5BF534
BBBB1C36
BCA28998
BC9242F9
BC5BB2AE
BCE30EC3
3D6ECB09
3CBF0B0D
3C0DA336
3CB91E2F
3D83A68B
BC2CB8C6
BCE2D151
BD7E393C
3C0D1359
3C88AD83
BDA07A87
BC55489C
3CC9D968
BD104A80
3AEB3ACC
BD0B975D
3D83CD65
BC823AA3
3CC2DB11
BC9AA4C7
BCE9E003
3DBF99DE
3D9E9AB3
BAC6C043
BCCC95DB
3CD958CC
BC091EAD
BCA2EB88
BC567F69
BCBB5541
3CC7BD64
BCC8472C
BA87BA9F
BC86A56B
3C56B808
3C36679B
3C37E5B5
3CBDD2C9
3D294FBA
3CB37E47
BD0D900B
3BA6B4E0
3C6F1851
BB613C1B
BCFE5215
BC81DF33
BB6B4284
BCC3BB76
3B3A9D4A
3CD65252
3D34B0E2
BCF09020
3CA77524
3D0DF33D
BC395C42
3D23DECD
BC06850A
BBF45FF9
BB22C05F
3D040D76
396FEA08
3CDEB273
BCDE3F50
BB79CF64
BC88FF83
3C935222
3D3EFE93
BBA0A2E3
BCDF1463
BC009673
BC5F3295
3CCF8B8E
BC5A6BF2
3CEEB3A7
BCE2607D
BD237931
BCA646BC
BCA50218
BD1C0626
BD6CF348
3B85B45F
3C92DD88
3D5EE4E2
3C8BB1AF
BCAE696A
3DC13A78
3CE9D47A
3BF38F6F
3D150A38
3CE24829
BB43EAD1
BD12B7E3
3CCBE3CE
BCC0F487
BC653B59
3C298824
BCDF6703
BCB51EC6
BCE23ABD
3B5CAD6B
BAD5EF35
BC464204
3C84F568
3C1EAE8C
3D1F3AF9
BBB3BA42
3CE39566
BD770EF5
BC0D431F
3C83760C
BBC1B79B
3A521855
BCFE72CD
3AE5B323
BC3496E1
BCBF3C56
3D087D47
3C86C227
BC83A465
BCBEBC69
BCA0A2A2
3D3FEB58
3D513801
3B711E10
3CE79B4F
3D907988
BD2E82CA
BCF823C8
3CF02C4D
3D8060D6
BC1D767E
3BC7BC01
BCBB5393
3C5746A3
BB7D4C46
BDA701DA
BC2F3C2E
BCEA9494
BD916101
BC89DF47
BC469A84
3DBB52BC
3B46647E
BD15A5B9
3D68504B
BC1F9C32
3D51C5FB
3D684E83
BC64BC42
3D0BD53B
3D388E1C
3C6F8E99
3C5DDC54
3DC0E9FD
3CD437C5
BCA68C91
3B7E63C9
BDA35B6A
BC9F8EA6
3B783835
BDA2EF76
BAEC3BD3
BCD7617B
BD2ED302
3C57EB0E
3BCC3954
3D56CE93
BCEA3528
BC7AB53D
3CE699FD
3B4A6844
3D40E96A
3CD22135
3CF4DFDC
BC50C4A9
3D9236DC
BC69A83A
BCB8910B
3D854F52
3D3BE985
BC297397
3C81995D
BD695655
BD07E0BA
BD0A5970
BD8F9B99
3AC6C29D
3C582B3A
BD2E96D1
BCD220CA
BC86AF47
3D13A92A
3C96E9F2
3CB98740
3C078A2D
3C9C2240
3DA157FC
3D55728E
3D07154D
BCEA3A30
3CC26ADF
3D4BCF92
BCA84CBB
3CE94219
3D555278
BCA29DEF
BCC459CC
BCB22043
3CE1A105
3AEFDD48
BB0EE58C
BD1E94FC
3B4437D3
BCD0F769
3CD30D23
3D17FB84
3CE0D314
BC1E9541
3CB9799E
3C4C23C5
3C3C70CA
3D33ABAE
3D1B1C00
3C8DF9BE
BC78E630
BC7C70FF
3C732ECC
BCBE7C07
3D1BFF1F
BD0436AC
3C399766
3B69C47F
BC08A9D2
3BC90FE9
3CDFA3D5
3B8D1780
3C34231D
BCDE6D08
3C013138
3D19EAA8
BC9C1758
BCDFDC09
BC945B6C
BC23D486
3CD1DABE
BC99BCD5
BCEDBFC1
3CDD01CE
3CAA4AF7
3CE6DD85
BC47DA8A
3CA1ECF0
BABE7CFE
3B5FAD4F
BA50A313
3CD01267
BC8DB595
3D637C06
BD236CD2
BCB6965F
3CA00DBD
3D1DC161
BC3F9BF7
3D7B3941
BC86B44F
BB3AD350
3C27F654
BC7A970A
3C65980A
3C3EC2B3
BCDE4565
BCC977E3
3C6C0867
3CACD764
3C0CFE20
BD28B835
BCB9EED9
3C88707C
BD2D5828
BD0D30A0
BD00C770
BCA8E2AD
B914719A
BCD22BB1
BCB36D4B
3CF2F5C1
BCD65E10
3CFF7165
3D02805E
3B3BEE58
BC93883D
BD2F974D
3CCA4386
3CC6290F
BC8AF84C
3C9ED578
BCE1BE61
BB80878F
BA5E9599
3C71F4A5
3B271025
BD05FF89
BD05197A
3CA0E8AE
3CDEDDA6
3C86C9B3
3A86DF2D
BC42953B
3C631A82
BCA9F8C2
3BFC4B6B
3B7F5205
BBFBEF7A
3B66E6A9
BB98AF23
BD0E860A
39785660
BC85B871
3D0817C7
BC4033CD
BCBC678F
3C83C94E
3C680E72
3D06E6DA
BB344D4F
BAADC119
BC7BF0A7
3D0752F5
BCBB2215
BC17EB79
3C84421A
BCC9D891
BC506A10
3C014F0A
BBBDE9DB
3C2FFA2E
3CBD58BC
3D01CDE6
3C293F94
BCB458CD
BCDF6E25
BC0219E1
3C796FC3
3D0918C8
BC97BCB5
3C6E1B67
BCC90CB9
3CA4C5E8
3CF9FC10
BCFE7EC1
3CA1D324
3B762F9D
3C0C6279
3CF5D504
3C771144
BCA06FAC
BCE81924
BD81DEE2
3AE1BFCE
3C8F47D1
BD386F48
BCAA1FC4
BBCFAC91
BC8CD424
BBCC2FC4
3CAF6FC5
3D116136
3C95E61B
BC8792D1
3CAF9980
3CF14262
3DAC1483
3D542E70
3BCE7EFF
3CCBF247
3CB3D54F
3C9ACC34
3D0F9809
BD2134E9
BCA4C180
3C0A5D06
3C2E7E99
3D1EDC7F
BBC078D7
3CB535D7
BCCEE286
BC62BFE9
3B1BA1DD
3D3447EB
3C7CBB3D
BCDCA36F
BD07A7E5
3C178D7B
3B9F3E74
3C0A78B5
3CE79109
BC3D86DF
BBDAFF95
3C4C2EAD
BCC76BCF
3CB3E6B7
BD03C8AD
BCFF8587
3CF21881
BC251BAE
3B821417
BC31E7DA
BCEA5904
BCD30F3C
BB4CB322
3C958A76
BC2F3004
BCCBF968
3CCA222D
3CA134CE
BC17887D
BBD6785D
BCCE5ED3
3CC4DEC2
BCA096E4
3CCDEA03
3BFC7D54
3CF6D57F
3CD912C1
BCDCA5F3
BD51DF91
3CA0B2FE
3D16B79D
BD85F882
BBE471C5
BCB3D36C
3C4B3F99
3D929B86
BAAB10E5
3C07F004
3DA6872B
BCC0C33F
3D09A0AE
3D7EEC54
3C8F7660
3CAEFFC8
BD08C1C0
BCC02448
3AFA24F5
BCD97D14
3D0529F1
BCBEF2BA
BD3A38AB
3BE24BBA
BC3C1A63
BC13671B
BBFF539D
3CABFC73
3D3FB034
3BCA3AF7
3D0A4441
3CEDE043
BBA2DA76
BB7B05F0
3CC097A0
BD27D043
BCC6BA2E
BAA5CCAE
3C442056
3C4CE952
3C025D27
3CFFA63E
3C86CAC0
BCD19371
BCD9B406
3C03E344
BC4C561A
3C1FD0B6
BC8D954A
3B5D082E
3D58E7A8
BD2147E4
BDC60873
3D765A4A
3DB48726
BCBE7B9C
38B39140
BD5ADD81
3D018D4E
3D0F90E7
BD98B355
3CC782E1
BD79F3C7
BC80460B
BCD2329D
BD50F18A
3D87F14B
BD0742B5
BC978126
3D12B9AC
B9F78CA5
3DAAFD39
3D3D6A09
3ADBD72C
3BFA10E8
3C4A940D
BB826159
3B869F2B
3C9BE3C1
3C381A23
3BF4642B
3C2BFDB5
BCACBFE7
BC130D99
3B98A9F0
BD84CF8D
BD0B6AE8
BCFB3886
BCEA370B
3CCE17F1
3C78F2C6
3D5E405D
BBE48611
BCFD0EB4
3D0A5BA4
BCD13470
3CD2216B
BBA66A78
3CBBE554
BCC5D994
3D475254
3D225E7F
3CB60F87
3D830602
3CE9E93D
BC00F78C
3C228F4C
BD021859
BC9C2565
3C585E66
BCD79EB8
BB98B1BD
3D1C5A59
BD28EFFE
3CEE3857
3C6562C6
3C9213C9
3CF950B9
BCE81D8B
BCA35BBA
3BEE8645
3D23F939
3B877B5F
3C239729
3C391926
3CDA7D8F
BB4B1491
BC258058
3DC05FE4
3CFF29AC
BD4F474B
3CD2B1E9
BD8B3312
3D68BBAB
3CB16B47
BD7DE15D
3C3A7EEC
BC82BD14
BD9843C4
3D31B641
3CE161AF
3D49DD64
BC9DE62F
39AF8140
3CBC6DDA
3C05E303
3CDCE00B
3CD73465
BBE814E7
BD06507C
3CCE0DE0
3C8F5F19
3C8AB48F
3D019CB8
3C093878
3CAF071F
3C561B2A
3C49D45F
3CE28ED6
3C12294D
BBADC50A
3CBB550B
3BDFF16D
BC26AF97
3CDE8922
3D18156B
3BB14FEF
BC8768AA
3CAC66C6
BCCCC906
3A1E0437
3D13AAA2
3CCB2B42
3CD7580B
BB3586E0
BD0F3436
3C9E75D7
BAA0C0D5
BD4E7A4C
3C54F1CA
3C4B26DA
3C2964E9
3D17A411
BC94CD82
BBC44F7B
BABFD9F5
3BD57451
BCC01960
3D0B3015
BD0ADDAA
BAB60A69
BD55E072
3C9E1E99
3C82BCDE
BD09F6FA
BBC807AC
BD2B6219
BD1DC89E
BCCD7965
3CD08DED
BD209AE0
3C697B59
3CE279DD
BB465E49
3C62BA09
3CA6EE16
3CB42353
3D1C9F8E
BC91E53B
BCCE4BBD
3D3FE6D6
BCCF5E78
3CC08348
3D00E9D5
3CAC2BD8
3C98CB08
BC903354
3C73C057
3C9B5B3B
BCEE7635
BBDE16A1
3C8001E3
BC079972
BCD1A361
BC8A431A
3BCC4CF5
BD2C300A
BC3801CF
BAECC109
BCB48FBF
3CC69E80
3CBA1A43
BBDDDD56
BC14016A
BB81312D
BC95F8C5
3D06E364
3C9D4BD6
3CD28C5F
BB2A6544
BC6828DE
BCDEE4C8
3CA081EB
3C626260
3D002463
BD019ABA
BBC8F5A8
3B03FED3
3C423671
3C5150C0
BCC1BEB2
BCF81C71
BC8CA0F8
3C25FFD9
3C8DB3E8
39B167A8
3CBE5C26
3C998908
BC9647A0
B9338940
BC8C9EAA
BD00C9DA
3CDD404D
3C243493
BCE8F480
3CA77A98
BC09366A
3D0AB48F
BCDDE813
3D065295
3B9992B9
3B9CE72C
BCC09E20
3CCD4380
3C71BE1E
BAE600FB
3C916DE7
3BDCCD60
BBA0459B
3B84193F
BB93DEDA
BCC1B3FF
BC856FE1
BBABB77E
BC0E92A0
BD41BB3C
3AC41417
BCAAEB30
BD29BC5C
BC9C45B1
BCBA2F71
3CD2CBB5
BC7DA9E4
BCF594D8
BB8ED789
3CD74CB8
3CD36248
3D240D5B
3CB34938
3D046789
3BF6C7DD
3CA8E3B9
3B034443
3B7E1976
3C2ABC01
3CC8315D
BC126A25
BBACF948
BCD40A43
3CF7C31B
BBE42AB7
3C97A27E
BCB77AC1
3D2DB2A6
3BBC3CB2
3CC35FD1
BCF0AE1E
3C89784F
BCAFBC50
3C89331A
3CFD5312
BC527F29
3B8D9D0C
3C980149
3D013265
3C775099
3AD1F022
3CB92875
BC135A86
3D383D5E
3CFAC34A
3B575694
BC0E37D1
3C18B538
3CCCBC06
3B8516D6
3BCA35AE
BC98A9B0
3CE9E5AD
BC8F4766
BCE88708
3C9BFAD3
3A57AF18
3C9E4D28
3AB77827
BC9FD9BA
3CE6AA8F
BBD8B523
3CCD4929
BB30D19A
BD049088
BC7B8A4F
BBD5BFE6
BCE7CAEA
BD6B5B2D
3CE17093
BC91233E
3D6F2694
3B4A8199
3B33994A
3CD08C3F
BCBF2DA8
BCD01B00
3D16D1EE
BC9629A3
3CAEADC8
BD3B3347
BBBF56D8
3C470E47
BC70E90C
3C674016
BD3C6038
BCEE1BD2
BC8D0A3F
3C3AC92A
3D3BF6F1
3CE293DE
3CEADED1
3CD6352B
3BCE2A05
BB8DF4CB
3C85AF6C
B9153031
BC809A24
BBDC9E11
BD019399
BCD26B72
3BEE81A8
BD1EDC64
BC655EFF
3C33D733
3D2A6854
BC45593B
3C8A3E47
3A3FD95B
BCA56408
BB2ED469
3D28BC9D
3B711CB8
BBDC2215
3D4F2D65
BD95505F
BD858736
3C7CA7F1
3D6F8BA9
3CAE3DCB
3A80C2EF
BC982957
3CAFEAA9
3CB5CF90
BD61948A
3D151952
BD3D3C1B
BC864CEB
BD92F032
BC88B256
3D70DAFF
BCE79A43
BD1927D4
3A978949
3D0753B1
3D7090F7
3D32D906
3C0F9138
3D0E1D9A
3BE50F8F
BCD56B01
3C3FFA56
3D4CADC3
3D0D5A0B
BD05366B
3CAD711D
BD51CDD8
3B313699
BB627352
BD3622D2
BCA01F90
BD13E3FD
BB5ECFAF
3CB7EDE3
BB7EEFB5
3D2A3A30
BB5D6DAF
3CB6796F
3C089713
BCE24F4B
3C842742
3D45EDEB
3C873AF2
BC502181
3D328EFE
3D129E68
3C73A14D
3D142246
BC32B925
3C0A5152
3C194CC3
BD80B517
BC697BC5
BCAE5E82
BD2DC733
BCAAA052
3D341794
BC7DC3E6
3B2F7853
3C9BC7A7
3CD2CD62
BCA8D64D
3D0D3A45
3C8A3D05
BC3C1F00
3D4E750E
3D21E746
BBD9629D
BCCD0C8E
BA94D1B4
3BFEFD0B
BC72F62C
3DB0E85D
39519658
BD2E0023
BC894EC9
BD7CA3C0
3D5C705E
3C4816F0
BD842A09
BCF62952
3C2E5BC8
BD8399A5
BC115A25
3C683D6C
3D660609
3CCAB607
BD05C73A
3D0C4C74
BC94EFE7
3D757C69
3C546E82
3CAB0A3A
BB245966
BC763942
BC5C6DBF
BC3CB817
3CCE2592
BB53A935
BC1A51B0
3C82FD0B
BC85D3EA
BC35E08D
3C3BCAB1
3C2D0EC1
BC193546
3A2BB127
BAA3FB47
3CD98436
3C9CA878
3C49EDF5
3C0069DD
BB6DBE5F
BC50F7D5
3C256A88
B9E7BA39
3C5D6A3E
3C16E265
BB33659E
BBE0C700
BCFACE9E
BB1D4449
BD85402B
BD13D677
3D3A6953
3CC93060
3CED1973
BCA51563
3B07A3CE
3C8AB317
3D52A56F
BC5A9EB2
3D5CE28F
BB991DDE
BCCFC936
3C16C9FC
BC70D2D1
3CCA7F15
BCE237CE
BB03F81D
BCA433F2
BCD0077F
BCFADC75
BB9E4815
BC13F8DB
3C9F970A
3CECCE2A
3C7B3596
3AB441BC
3C9E39A7
3B2429EB
BCA12E18
3CC7BAAA
3C21604D
3BFC61E6
BCDC53F4
BCE9816E
BCACA1EA
3CD84A0E
BCB4D2DB
BD4BBF87
BC3016B4
3CBCD863
3CBB7D19
BCF2B41D
BD0487EF
BCC44758
3CA86DA8
3C19EBC4
BBDD5E95
BCC51F24
3C188760
3B0C04B1
BC3EE3D6
BCB30510
3C9803CD
3BAA32C4
BC502F58
3BE2A2A2
BC849D1E
3CE0A70A
BCCC5401
3AD4B11D
BB695168
BCB2AEDF
BCB27716
3C85D994
3CB270CB
3CCA1C84
3AB0180B
3CDFDC74
3CF0C459
3CA876E2
3C674D16
BC3358F3
BC62EC5E
3A96FDB3
39440485
BC843980
BC98B462
BD04B018
393DDCCD
BCC1263B
BCA279DD
BCCA6B28
BBABF10A
3D11793A
3C9B8349
BC8A5B6E
BCFCC79C
3D012F90
BCBFEBA8
3C803E7F
3C935547
3C5183EC
3C04AB00
3B7EED30
3CFA2270
BC3C4454
3C94AA7C
BC0BC957
3C63C247
3D3A203D
3D4A494A
B9806CE7
BD0508E9
BD54821D
BBBA8288
BCCB20C5
BC2D9F75
3BA7E5E3
BCD7C8DF
BCF26400
3C9C2672
3CAE9E43
3CF59395
3C38DBEA
BC36918D
3C01C8C2
3AAE4E07
3CF291EE
BC187A95
BCC25DDE
BCCC1D0F
3C64CC32
BC9BC5C4
3C4B8BF0
3B7DE7CD
BC92C966
3C1FDD6B
BCC6E9FF
39EA4CB2
BD0FB4DF
BBB24A95
3C59ED47
BC4F1A1A
BA74A8C5
BB947730
BB4916B5
BBD121B1
BD11AEEA
3C6B60A1
BCA3D196
BC68CA59
3D072AB2
BD108AC7
BC94DD3D
BCA2EF4E
BC05E633
3B7A2017
BCC62365
BC660EBD
BA563D30
3B91CCF2
3B254824
3C66AD49
BCADB46E
BB2AA708
3884831A
BC2E7777
3C247885
BCC3C410
3CABB200
3C6CF4F6
B9E0FFCE
3B73717C
BB2AAD68
3D03ABA1
BCDC6775
3BB07060
BC860A05
BC4957CD
3C873B28
3C8F83CC
3B98E640
3C4408D9
3CB11A1F
BC791A33
BCF9A904
3C72E6A7
BCCD3898
3C42EE27
3CDA9AEC
3B089895
3D15DAC8
3D10E32D
BC7D1493
3D16EE59
BD17A65F
BCBABB88
BBF7766F
3C1CEE78
BBF198DF
BCBB1DAE
3CE24C25
BACF15FD
BD5308D6
3CDD2CCC
BB9BD198
BC591A4E
BB68C3A3
3D02C01E
BAC573BD
BC1BCF94
3C88FFB9
3C904F38
BC8C11F2
3BA6096A
B600FFD5
BC9F109C
3C6135A5
3BF2D621
BB9A1B1F
3C7029C9
3C477A12
3CAF6040
BCC9EF37
3CDCE68B
BBC1B480
BCB090F7
BC38D102
3CDCF066
BC575262
3AB3C036
3D2DB6D8
BDB4EB64
BC6BC68D
3CCA389E
3CEFC017
3B1B827D
BD0594CA
BCF7E407
BCAF19C9
3CD6E697
BCAD6F39
3D22A561
BD007810
BC7364E7
BD9B1BCA
BD9DF6B3
3D2750C2
BD1B42B1
BCC1C674
BC43B928
3BF05D4B
3D1F4C97
3D3B645A
3B51E6BD
3CAFD3CD
3D15CC6B
3B77B1A8
BB9948E7
3D0C9936
3D20AC2D
BC120A03
BBC6EACB
BD155094
3C3C5C3C
3CCC451D
BD571830
BC82EACC
BBB86272
BD3FE3B0
BBBE4245
BB3C9F2D
3D6883E2
3CC086D9
BB89F623
BCBD6AC5
3B9A2BA5
3CDFEC2F
3D00F50D
3CF5374F
BC5068CE
3D4961A9
3CE9DC72
BC1DA5AD
3CB5F7D4
3D10FD7E
BB1BD4B2
3D021137
BD55AD2B
BCBD9847
BBB2F9BD
3C2E770C
BD47467B
BB255C45
3C2F69E5
3D6EFC37
3D2CB6FD
BC0B0F68
3CF86BB7
BC98EF50
3C4FF78F
BCBB8801
3CC16FD7
BC4B78A4
3BE536E6
3CED3D50
3B544F78
3C88B4A5
3CE31254
3D2F346B
BC5535BC
BD00931D
BD078FAC
BD79A1FD
3CE93624
BC8ED261
BD40AE46
BBC5B328
3BE1AE30
BD3BB151
3C886ECF
3C9127DB
3D190987
BD01D06A
3D0874FF
3C9BE503
BCDCBD05
3D01BC99
BB66E92E
3CFC0A72
BB97014E
3BC688E6
3C9A9A80
3D06554F
3CE9E724
BCC3B0C4
BC48D9F9
3B6698FC
BCAC6E88
3CEDD26B
BCDAB5C4
3A148A80
BCF7F504
BCB97827
3BBC66F9
BC58E93B
3D08D2A2
3C32D682
3C90FB65
3BC4C831
BB17DED9
3CA58D8E
BC8F3E97
BC8F3882
3CE374AF
3C729CD6
BC77BB8E
BCAF6F8F
3D05A709
BD359593
3CAFEA3E
3C4DFE25
BB1BCCFB
3D355AC0
BD2F010A
BCA9F8C2
3C002B74
BB834CBC
3C94A970
3D3EA3AA
3C1D6332
BD07D806
BB0F5DAC
3C5A1017
BB71DBFB
BB5ADBD9
BC467D93
3BC4FB72
3BF77B4C
3B87A236
BBF5E7B9
BD0696D8
BBCF3304
3C1E2B0E
3CBBA527
3BA0FC0F
3CAAD7E5
BB39F402
3CA7F4DC
3C9DDADC
BC34C356
3CD4B34B
BCC8B220
3CBC7B46
BB848677
3D0E894B
3B7AEA6C
BCE19546
BCCB5EA3
BC93BC75
3ABF972F
3BF2E916
BD212407
BCADF465
BC81F893
3A2D190F
3C829358
BB395E86
BC46F735
BC6F1FDE
BCB2AC90
BC416880
3B957E2C
3D1E0A92
BCACD2C7
BAA37109
BCAB02E3
BC87D582
BB60CD35
3D26252E
3CAD2BE8
BC9FB2EE
3C789466
3BDB98C3
BCE459E7
3BC2F9BA
3B5C7A14
BCD197A2
3CD69A41
BCB8B6CB
3CBB7C42
3D012366
3C8FABA4
3CED0983
BCA1DF18
BCEC976D
BB0223B1
BB444DA2
BCEE5A86
BCAC089D
3CCAA1AF
3C2FA3C7
3D0B8900
3D05668C
3C458A4E
BC3C2621
3CEF0CFE
3CDAD066
3D10D464
3CE12A1C
BC5124B6
BB845F4B
BC6F44C7
BCEBDC5D
BCF8ACBA
3C9FEB8E
BC044F50
BCF63F8D
3CC95DE2
3C64DDD0
3B446D83
3C89B8B1
BC111816
BD391A68
BCC9EB3B
3B611254
BC68DCCE
3B55C61B
3D04B084
3ADAC45C
BC64D064
BC12A8E5
3C316CF5
BC797679
BC4A2C09
3A5D5E26
BCCC2939
3D1E0448
3D20E5A3
3C0FE6FE
BCB05964
BCD2EEF0
BD0E5995
BBDDCF13
B9650948
3B165643
3CAFC1C4
3CB19F4A
3CFC8E91
BD2C3ABC
BC5DC9E0
3D1BB8DE
BBCAEA34
3C5ECD80
3C5FA3D5
BC327B12
3C0A0176
BD16E7BE
3B0E175A
3C780B3F
BC9F284F
BC5C91D1
BD04DBED
BCEDD9F8
BCCF4D0F
3CE74879
3C653A82
BC99C1A8
BCADCA73
3D22A4DB
3D10E729
BBD00175
3C2FD6F3
BC19922D
BC8E0221
BC0EAB09
BD1A9451
3CDF4433
3C50437A
3C76F23A
393894B1
3D078E85
BB872853
BC521724
BCB72459
3CA0C862
3C89E55C
3D17BF54
3CF8561D
3C86C7D0
BCD18A01
BD415AF9
BD0840C7
3C8761F4
BD3A85D8
BD2A37AC
BCAC710D
BC94925E
3D42037B
BC8060E3
BCB0B78E
3D0E955A
3C927C04
3CC9A317
BC052DFD
3CD627BF
3C31FA4E
BAEC097E
BBD9F702
BBC1B542
3B94614B
BBF2895F
3C05C6FF
BCB57F08
3C686FC1
3BDB77E0
BC8AF3E4
BB58B0DC
3D058073
3C447EB5
BC6F346B
BCE3C105
3BB121CC
3BA3E2DE
BBA9B688
BC950A53
3C8E8061
BB64C490
BB9A809F
3BE36A89
BC197430
BCB93E45
BCC7C8B7
3B417EE6
BA3B257D
3C76442A
BD01A693
BC5113EF
3B87CDEA
BBE649B6
BCCBE75F
3D4BAC8C
BD998AD1
BCF4B224
3CB65DC0
3DA1FD9C
BC838D1E
3AC2F283
BB8B3365
BD0F77BD
BCBA6704
BD74F052
3D7864CB
BC8968CA
BBDBE889
BD61A6E4
BD7DED6C
3D635611
BC7A65F8
3C83CAFB
3D186552
3CE74FD0
3D2AE22C
3D086D3C
BC67909D
3B01BF32
BB145B97
BCF261E7
BC9657C6
3D38E143
3D312F17
BC9B9E8C
3CB4FA13
BD42B8C7
3D394C6D
BC66919A
BD100806
B940F6D6
3CBEDE62
BD3A79FF
BC36C73C
BCE2FAD7
3D2AAF6C
BB1962BD
3C4DCBD0
BCA82B2D
BCDCB21D
BC08944E
3B9618DC
3C44CB0B
384925DE
3D132BC1
BC0587EA
3C281C13
3D06BDA4
BCAE0FDE
BD1E2875
BC9C8938
BD592967
3B923084
BBB668DD
BD1A109D
BD167CC9
BC4ADBC6
BBC3E6B5
3CFA05B5
3CB78218
3D165435
BC92B1B3
BB3D23E2
3C2D3481
3CED457E
3D1FF965
3A49CD58
BB5D5F16
3C06350E
3AC65BEF
BCE3CB4C
BCA96B69
3BE54C20
BB3C4972
BCF4C108
BCF4E626
BD3D9EE2
3D2FC413
BD03E8C3
3C2AECA8
BC890F3E
3C1F35F0
BC99B1B8
BC288E95
BC92B28A
B9034F5E
BC3CAB82
3CE3F0A0
3CE3E0B0
3D0725A9
3D59D056
3D194F0C
3C3DE757
3CD787DC
3AA7BB9B
3C18AAE7
3CD0C1EF
3C1EE59E
39BFE5F8
3D075727
3C822178
B9E060A0
BCA8F4EC
3CB72B45
3CB089D6
3CEBF40F
BB3B9440
3BE33DE8
BC0816B0
3D0AA3FE
3A992759
3C629DEF
3C545A60
BCB96399
3CCC2720
BC3C1052
BC77065C
BC8464EA
3C9556DF
BB9E9CF9
BBA69845
3C7E5A0E
BD8CEACA
3C9D51B5
3D071807
BCC3F0F1
3D35A046
BBBA0EF0
3C48DF02
3CD122D3
3D400955
3CFEBBFD
3C4FA26A
BC980F8C
BD1A50AE
3C0C52DF
3C03C9D9
3C4042E6
BCE5C58C
3CCC2324
BD307C6A
3BB2DF10
BCEEB91B
BC3CDF19
BC87DB2B
BAE06C92
3C5C86EA
BCECDCD8
BCE32D61
BB5B14E4
3CD22BE7
3D14A508
3BAFF9D8
3CFABA7C
3D09EDA5
BC966100
BCC449A6
3D18CD8C
3C8BDE25
BC296AC8
BD219F72
3BFA02E6
BC97BCEB
BC979C34
BCAB00CA
BC203453
3BE3DC1D
BC5A4BA6
3C30FFE8
3C5099E1
BCD87146
3C9CD3AB
3C9E4CBC
3C581ADF
3C5FE111
3CB980C0
BC3664AB
BCC37246
3D0A6996
BBCED7FF
BC682C39
BBD457DC
3CF2B2A5
3C9A69D9
3CAFCF30
BCD73FB8
3C020DAC
BADFF6CB
3C0DC86B
BC469DDF
3C5BF5CA
3C3E9277
3CDFD22D
B79DCE76
BC2CE7C0
3BB3A762
39CF9405
BD11E281
3CAA4152
BC8D35DE
BBB71A89
3C6985D6
BC6E1877
3CCFB4DF
3CD8E4D3
BCD4D651
3C85535C
3D18798E
3CAA2AAC
BCA9D693
3C4E6553
BCE6EFC3
3C044991
3B726F74
BB9A67B5
3CD4E8FB
3C37EC6B
BCF88F94
BB2FDF00
BB7D616A
3CE19E15
BC9D9217
3C3E51E0
BC10CFF1
3C5A1306
3D0935EF
3C9CCE37
3C98DF2A
BCD68A1B
BC9D68FC
3CAC44CD
BD06E0E0
BC8E2A9B
3CA6025E
3CECA977
BC67C9A8
3CA73C1A
BCCE255D
3BF8A873
BCAB0780
BB5C517A
BB8F5A66
3C8BA875
BB03BB36
3CB4A630
BCCCD7EA
BAF4130D
BD0E56A5
3BFB894E
3B6A7F90
BCF63F8D
3CA58F71
BA8D6DE7
3BEE970C
3D0D801B
3CE87A3D
3C0A9D5D
BB9A0524
39190DEA
3C06C4D6
BD13958E
3CF115ED
BC86B4BB
BD055A2D
3C3B9CFA
BD032F45
BCE0D598
BD042686
BC7E0DB7
BBDE8506
BC8A7539
BCCD283C
3CDCC9D0
3D19A283
3BB9B025
BCC7EFB9
BB9B367D
3C025AF9
BC4511ED
BC96A6A0
3CE4302B
BC20A98E
BC286A82
BCA70B72
3D125588
3D09AC01
BA094BBB
3B79F275
BCB4B14D
3BB07F7A
3CDB555B
3CD7283B
3D08ACFD
BD072523
3C3FE8B9
BCA49434
3C4B0FC9
BC25F69F
BCF21F37
BA352F3B
3CA6489F
3D16C24F
3B00788B
BB07F7B1
BAE7C247
3C5F2595
BCC2532C
3BB8F3D2
3C959777
BB86443D
3C1ADB83
BC783BE6
BC43D039
BC748868
3CDCAE57
3C1C49AD
3B954272
BBE1E29E
3CCBF968
BB91B158
3A62722E
BCBFD644
BC5D3C87
3B341BA6
BCC44326
BA2E4BAD
BD01E63A
BBBE8EF1
3D070868
3CA2E5A8
BC6496EE
3C92AEF9
3C08F70A
BB2B659F
3CA42360
3C6E30CB
3C043B99
BBC68A68
BCE6BA14
BBDCB3B5
3CEB3F13
BB14E555
3C2E458E
3C46D2B8
3D3E7063
BB0C416C
BCF30C67
3D5AE990
3D4AB25B
3CD598B9
BCC79413
BD0F0B00
BD13D8C5
BBCB4A41
BD8784B7
3C1252B3
BCFAC995
BCC59D99
BC949914
BC9AA858
3D9A12DE
3BEC97AE
3B1CE554
3CB85008
BC84BE76
3DA83FAD
3D77FCE1
3C82030F
BC3D1E03
3D2EB9F2
3CBC6E7B
3C434CF1
3D5CA22D
3BBDF94A
3C48C2E7
BCD7F9BC
BCD1E38D
3D37D7A8
3D01CD45
BC5D2285
3C181BE0
3C2FC0B8
3BA324B3
3CAE8FCB
3C216CCD
3B999C1E
BC1D8ACB
3CF71759
39DAB803
3CE7B048
3D05B658
3D1B451B
3C90D7BF
3D0488FC
BC950CD7
BCE1A679
3D0BA45E
3BF4F4CA
BC006CED
3A8B4B4D
3C40C1FD
BD498138
3D61995D
3AFB529C
BC965B56
3C80420F
3C3BF006
BC0BED69
BC48B3CE
BC83FA2B
3C1F94BB
3CE68DD4
BC0AC66D
BCDBFFDB
BCCC12C8
3CE85CE1
3CED9E33
BCF4E011
3CC78D28
3C39A2B9
3D06FAC6
BCC13EFA
3D3B8639
BC334F4D
BCF9983D
BC91D290
3B01DB62
BC8C52F5
3CE8B8F1
BD0DDA7E
BC8F0E91
38DEC855
3C43F44C
BBE090E4
BCC0DA1B
BC764643
3BADE617
BC8D6437
BC67FE16
3CA57B19
3D18CB8E
3D11390D
BCA6A8E1
BC9A4E96
BD09A5EC
BC60AAD0
BCB30DA9
BD0216E1
BC58D584
3B8F8CA5
BD007A94
3C99DD8C
3C0DDD4E
3D055AE9
BCE14021
3CC1C20C
3C96D2AA
3CA76CF7
BBED5AE2
3C245D42
BBF2A29F
3C8BA94C
3C899E44
BC2C089D
3AB11C17
3C993FD8
3CDBBC8A
BCCA17B1
3B9C5D6E
BCE7798C
BC9D0A67
BB6A71CE
BC9C52B1
3BC5DE9C
3D1EEBB3
BC916BCE
3CE09389
BD49AC1B
3C9B8851
3CF4D199
3D0EB499
3CBC9A85
3B90AA9D
3C76CD51
BCED6A9C
BD0187A5
3CC65CA6
BD002D82
BB93427D
BC8F6D91
BCDB8D24
BBE9598B
BAB1FD94
3CECD83B
BCAE71CE
3D026FCC
BC667A1D
BCCC52BF
3B358634
3CCE4177
3CF7A4E8
BCE4EA9B
3C64C653
3BD31FE3
BC60B25D
3D04122E
BC0DAF2B
3C8948B4
BC87192F
BCCA0E77
3CCE0257
3BEF49BA
BB5177AC
3C205540
3BC6B383
3C19D7D8
3C7D2052
3CF39B02
BC674A92
3C5D41FA
3C1E6E6B
BD085E23
3C086BB4
BCBB1D0D
3D08ADB9
3CF650BF
BCA3F6EB
3C030CBA
3C3D4570
BC4EE10F
BCE534A3
3BEE9D98
BC03F812
3C984BF1
3C51BFE6
BD0FE104
BC5BE2EA
BCF5257C
BCB1271F
BCE230AC
BCC63172
3C487C05
3C398FD9
3BF21C93
BC6C4248
3C762307
3CD21145
3B0A171B
BCA60B62
BC9317D5
3CE01FFB
3D0C3456
BD06200A
3B942A2E
BCDE05A5
3C1DD9BA
BCF81EC0
3CAE6F7F
BC9393C6
3C2729A5
3CEA46C6
3CC9E26C
3CAFA21A
3C9DCAEC
BCB087BD
BA1D13E6
3C9CA51D
BA861A8C
3BB12958
3BBFFE1D
3B3CED5C
BC845B0E
BC4430B1
3CB3B320
BC2AA9F8
BA621F3C
BD2CA072
3CCE7C9B
3C1BA5CE
BCC5FAEC
3CDA500D
3ABF9F3D
BD102313
3B8A2D55
3BEAD87C
3CA0C466
3C244630
3C21637D
BC0CDCF3
BB30A1C9
BB606256
BBDFFD6C
BC613108
BCC69D73
BCF75D9A
BBCEF6C9
BCA93767
BC8BCE35
3CDB2AFF
BBCFBBAA
3CE38E45
BCB21D54
BC19A8D3
3BC3F63A
3CB42536
