BD8E6CC5
BED4EEBF
3F29C1C6
BDF1F4F5
3F350E24
BEB33C3E
BED28390
BE4CC4AC
3E25857B
3EC8ACC1
3D5F54FA
BF50195D
3EFC6FDF
BF550EED
3F288659
BF0EC14C
BF2F91B4
BEDEE7C5
3ED81E8A
3ED058DE
BEBB6630
3ED8B2A7
3ED4DFAD
BF31E97D
BE86E610
BEBC816F
BEC21102
3CF91F05
BEFA6F3F
3F3AC860
BF71E4B4
3EE76E3F
3EF36D01
BF252652
BED135FC
3F0B08CC
3DAB2C26
3E0D97B3
3D94F8F9
3D8DACEF
3DF3AA37
3F49B164
BF45B2F6
BF26FDA8
BF5DEC2D
3E78CD21
BE0CCDD9
3D849F44
BADACABC
3ECB1FCD
3E047842
BF402731
BE868449
3F42FC37
3C9053A0
BE444FE3
3F3BDC05
BF01F267
BE592C49
BE41ED9E
3F30DEB1
BEE078FB
BE6DF8F4
3D64A43F
BF17313C
BF68D7CF
3EB43D47
3F009E34
3E26733F
3EA2E105
3E820BE5
BF27BD5A
BE3B1184
BE9C7CFA
BEC0A3F9
BD2CC708
BDAC3563
BEB3D966
BEE45027
3F3C04A7
3E1DDDF4
3DD526D9
BC28954A
3D0D5934
BE4C98A2
BF13FAA0
3F63F0FE
BED68D76
BDDC254A
BE1201CD
3F4914C2
BE2CB8E1
BEA5DD2B
BE5D527E
BEC26EFC
BD2FB763
BE8019D2
BE935B0C
BEB8A8F4
3E4AA759
3E935C5B
3EBF418D
3EBB6113
3DA42F3A

